<unk>	0
<s>	0
</s>	0
<pad>	0
<wikipedia>	0
</wikipedia>	0
<wikipedia_başlık>	0
</wikipedia_başlık>	0
<wikipedia_metin>	0
</wikipedia_metin>	0
<tarif>	0
</tarif>	0
<tarif_başlık>	0
</tarif_başlık>	0
<tarif_kategori>	0
</tarif_kategori>	0
<tarif_malzemeler>	0
</tarif_malzemeler>	0
<tarif_açıklama>	0
</tarif_açıklama>	0
<soru_cevap>	0
</soru_cevap>	0
<soru>	0
</soru>	0
<cevap>	0
</cevap>	0
<cls>	0
<sep>	0
<newline>	0
<null>	0
<empty>	0
<rdf>	0
</rdf>	0
<triple>	0
</triple>	0
<subject>	0
</subject>	0
<predicate>	0
</predicate>	0
<object>	0
</object>	0
<example>	0
</example>	0
<instruction>	0
</instruction>	0
<code>	0
</code>	0
<python>	0
</python>	0
<json>	0
</json>	0
<xml>	0
</xml>	0
▁	-2.8772
.	-3.1109
,	-3.43646
'	-3.85476
▁ve	-3.86264
▁bir	-4.04043
:	-4.55974
"	-4.97789
▁"	-5.01182
▁için	-5.15369
▁olarak	-5.39197
▁(	-5.4678
▁-	-5.53111
)	-5.57939
a	-5.59162
▁Bu	-5.59647
▁bu	-5.65499
in	-5.68857
e	-5.70596
da	-5.71365
▁daha	-5.79952
de	-5.82406
nin	-5.83155
?	-5.91395
nın	-5.93644
▁veya	-5.95008
n	-6.01915
ın	-6.02347
▁da	-6.03624
▁olan	-6.05075
i	-6.0657
▁ile	-6.12431
▁de	-6.14249
-	-6.1875
;	-6.19701
▁sonra	-6.27926
lar	-6.29663
▁en	-6.3547
▁gibi	-6.3662
▁çok	-6.39499
ler	-6.4394
ya	-6.50921
▁tarafından	-6.51338
den	-6.54423
dan	-6.56084
un	-6.56431
▁iki	-6.58657
▁kadar	-6.59323
ne	-6.62613
na	-6.62905
s	-6.64524
▁A	-6.68799
te	-6.70614
▁Adım	-6.77915
▁olduğunu	-6.78674
▁büyük	-6.80153
▁her	-6.80475
ye	-6.80959
▁ilk	-6.82232
▁iyi	-6.83329
m	-6.83355
▁yer	-6.83409
▁doğru	-6.83538
la	-6.83793
k	-6.84346
▁yılında	-6.85442
ı	-6.87385
dir	-6.87522
▁şekilde	-6.87988
▁olduğu	-6.93949
▁göre	-6.94394
▁ancak	-6.94558
▁aynı	-6.97192
ları	-6.98791
▁fazla	-6.98854
le	-7.01481
nde	-7.03073
daki	-7.04199
u	-7.04841
leri	-7.06256
▁Bir	-7.06508
ta	-7.06573
▁arasında	-7.08462
dır	-7.09868
nda	-7.12068
▁önemli	-7.16105
ni	-7.1693
▁cümle	-7.18271
▁Cevap	-7.19309
."	-7.19486
▁ilgili	-7.19765
▁yeni	-7.19814
▁diğer	-7.20205
▁ne	-7.20483
li	-7.2097
▁önce	-7.22582
▁=	-7.22861
),	-7.24353
▁sahip	-7.253
▁şu	-7.27014
▁hakkında	-7.27509
yla	-7.28224
yi	-7.28256
▁var	-7.32061
▁birlikte	-7.3229
Bu	-7.32866
▁1	-7.33173
d	-7.34752
▁değil	-7.35533
▁zaman	-7.35671
▁soruyu	-7.35763
▁karşı	-7.36096
▁2.	-7.36499
▁onu	-7.36768
deki	-7.38644
▁ise	-7.40375
yı	-7.40521
z	-7.40923
▁oldu	-7.41002
nun	-7.41676
▁B	-7.42085
▁1.	-7.4389
▁3.	-7.45298
▁Ancak	-7.45949
▁küçük	-7.46718
ların	-7.48815
▁son	-7.49553
lı	-7.50137
si	-7.50368
▁adı	-7.50554
lerin	-7.51018
▁nasıl	-7.52242
▁olmak	-7.52299
▁bilgi	-7.52469
t	-7.52581
yle	-7.52859
nı	-7.54161
▁neden	-7.54171
▁olabilir	-7.54226
▁etti	-7.54416
▁cevap	-7.54448
▁verilen	-7.54571
▁hem	-7.5467
o	-7.57643
▁şey	-7.57721
▁çeşitli	-7.58435
!	-7.58438
nden	-7.58958
▁farklı	-7.59079
▁o	-7.60789
▁yıl	-7.60802
▁ifade	-7.60835
).	-7.61543
▁tüm	-7.62067
▁zamanda	-7.62144
▁nedeniyle	-7.62424
▁eder	-7.62481
▁ardından	-7.63786
▁devam	-7.64035
ndan	-7.64589
▁alan	-7.64641
/	-7.64793
▁onun	-7.65111
▁Her	-7.65152
▁bazı	-7.65235
▁az	-7.65659
▁yüksek	-7.65695
▁C	-7.65831
▁üzere	-7.66595
▁çünkü	-7.66774
▁2	-7.66847
ten	-7.66991
▁geri	-7.67261
▁yardımcı	-7.67987
▁ama	-7.68535
▁Daha	-7.69786
r	-7.70313
▁eden	-7.70519
▁anlamına	-7.71469
▁Soru	-7.71718
A	-7.72065
▁üzerinde	-7.73336
y	-7.73469
▁kabul	-7.73519
▁film	-7.73521
▁su	-7.74422
▁soru	-7.749
▁ediyor	-7.75304
▁gelir	-7.75326
▁tek	-7.77706
di	-7.78275
▁etmek	-7.78615
▁eski	-7.78761
sa	-7.7948
▁kişi	-7.79532
▁bulunan	-7.79768
▁Dünya	-7.8055
▁göz	-7.80713
▁boyunca	-7.8079
▁olup	-7.80922
▁yol	-7.80946
▁genel	-7.81178
▁başka	-7.8179
lik	-7.82386
▁uzun	-7.82656
▁aldı	-7.83218
tan	-7.84312
▁bağlı	-7.84337
▁olumlu	-7.84698
▁5	-7.85357
B	-7.86064
▁uygun	-7.86747
▁genellikle	-7.8679
▁edin	-7.86914
▁biri	-7.8705
▁ya	-7.874
▁ortaya	-7.87454
larını	-7.87613
▁özel	-7.88173
▁ABD	-7.88266
▁sırasında	-7.88345
▁Amerika	-7.88371
l	-7.88681
",	-7.88727
▁yeniden	-7.89019
▁birçok	-7.89044
▁3	-7.89234
▁üç	-7.8967
▁bunu	-7.90089
▁mı	-7.9022
▁gelen	-7.90396
▁D	-7.90405
▁konusunda	-7.90533
en	-7.90545
▁kez	-7.91025
▁ikinci	-7.91114
▁dahil	-7.91282
▁kendi	-7.91489
ki	-7.91565
▁4.	-7.91646
▁adım	-7.92241
▁olumsuz	-7.92584
▁gün	-7.92774
▁Birleşik	-7.92877
▁Ayrıca	-7.92993
▁içinde	-7.93042
▁O	-7.94126
lerini	-7.94536
▁2:	-7.94561
▁kısa	-7.95165
Aşağıdaki	-7.95359
▁cevabı	-7.95986
C	-7.96514
▁karar	-7.96961
▁ana	-7.9712
an	-7.9716
▁olur	-7.97921
▁|	-7.98018
p	-7.99007
▁nedir	-7.99662
▁mi	-7.99702
Soru	-7.99861
▁adlı	-7.99931
▁yerine	-8.00384
▁cevaplayın	-8.00593
▁Evet	-8.0097
▁ona	-8.0108
▁herhangi	-8.01387
▁S	-8.0139
er	-8.01515
▁yalnızca	-8.0178
▁arasındaki	-8.0257
S	-8.03041
▁1:	-8.03283
▁km	-8.03542
▁aşağıdaki	-8.04434
▁Avrupa	-8.0471
▁Cümle	-8.0483
▁yok	-8.0511
▁mümkün	-8.05524
▁seçin	-8.0611
▁olmadığını	-8.06949
sı	-8.07388
▁başladı	-8.07699
Bir	-8.08137
▁vardır	-8.08364
▁birkaç	-8.08587
ma	-8.08725
▁İngilizce	-8.09263
▁İlk	-8.09359
▁Seçenekler	-8.09575
▁yaptı	-8.09646
▁tam	-8.10523
▁söyledi	-8.11128
▁4	-8.11425
▁kişinin	-8.12441
▁süre	-8.14108
▁cümleyi	-8.14368
▁olması	-8.1448
▁görev	-8.14824
lara	-8.14827
▁alındığında	-8.14837
▁yemek	-8.15202
▁tarihinde	-8.15777
▁mu	-8.15886
▁üzerine	-8.16546
▁önüne	-8.16757
▁sadece	-8.16825
▁yardım	-8.17526
▁belirleyin	-8.17792
▁10	-8.17834
▁Üniversitesi	-8.18142
▁hangi	-8.18292
▁rağmen	-8.1839
▁adam	-8.1877
lere	-8.18914
▁özellikle	-8.19615
▁sorunun	-8.19827
▁bunun	-8.19937
▁+	-8.1999
▁belirli	-8.20519
▁olmayan	-8.20608
tir	-8.20699
▁En	-8.20859
du	-8.21434
ti	-8.21543
▁açık	-8.21623
▁analiz	-8.22516
▁yaklaşık	-8.22802
▁insan	-8.23614
▁değildir	-8.23809
se	-8.24089
▁iş	-8.24334
▁yakın	-8.24664
▁sıra	-8.25438
?"	-8.25916
▁New	-8.26163
lu	-8.26464
▁edilen	-8.26742
▁Devletleri	-8.26883
▁Türkiye	-8.27735
▁nedenle	-8.28198
▁dikkat	-8.2873
me	-8.29156
▁temel	-8.29556
▁kadın	-8.29729
▁yazın	-8.30713
lerden	-8.30717
▁15	-8.30865
▁dayanarak	-8.30891
▁elde	-8.31184
▁güçlü	-8.31345
▁yapan	-8.31481
▁satın	-8.31626
▁müzik	-8.31679
▁vardı	-8.31687
▁cümlenin	-8.31855
dur	-8.31864
▁hiçbir	-8.3215
▁gerçek	-8.3237
ca	-8.32892
▁Verilen	-8.33085
▁günü	-8.33187
▁I	-8.33219
_	-8.33526
▁konusu	-8.33741
ken	-8.33952
’	-8.34057
2	-8.34274
▁grup	-8.3446
▁olduğundan	-8.34825
▁The	-8.35192
▁yapılan	-8.35877
lık	-8.36064
▁ki	-8.36364
▁doğrudan	-8.36579
b	-8.37096
▁söylemek	-8.37846
tır	-8.37963
▁çıktı	-8.38199
▁Sonuç	-8.3823
▁kötü	-8.3847
▁[	-8.38512
="	-8.39121
▁kontrol	-8.39234
...	-8.39755
▁E	-8.39809
▁6	-8.39831
▁kız	-8.39921
▁yaptığı	-8.39954
▁Türk	-8.4028
▁5.	-8.40506
▁hale	-8.41009
larının	-8.41212
▁Şimdi	-8.41436
ydi	-8.41662
▁Mart	-8.41715
man	-8.41761
▁genç	-8.41866
▁İngiliz	-8.42119
▁12	-8.42422
▁geldi	-8.42741
▁verdi	-8.42983
▁20	-8.43126
▁hava	-8.43152
▁size	-8.44075
]	-8.4415
center	-8.44197
▁Ocak	-8.44663
▁align	-8.44749
▁yanı	-8.45665
▁sonunda	-8.45739
▁filmin	-8.45755
▁durumda	-8.45836
um	-8.45889
▁yönelik	-8.45968
▁sonraki	-8.46309
▁içeren	-8.46418
▁tür	-8.4658
ydı	-8.46711
▁yapmak	-8.46716
Lütfen	-8.46807
▁Yeni	-8.47427
▁ev	-8.47549
▁oluşturun	-8.47763
dı	-8.47885
D	-8.479
▁dört	-8.47965
▁Eylül	-8.48042
▁Mayıs	-8.48406
▁biraz	-8.48413
▁tarihi	-8.49274
▁oluşan	-8.4955
larına	-8.4959
▁gerçekten	-8.49714
▁ele	-8.49744
▁çocuk	-8.49816
▁3:	-8.49836
▁altında	-8.49837
▁!	-8.49871
▁Çin	-8.50184
▁ilişkin	-8.5041
▁haline	-8.50903
▁John	-8.51001
lardan	-8.51017
▁Kuzey	-8.5109
g	-8.51569
ce	-8.52121
ün	-8.52146
▁Kasım	-8.52354
▁olacaktır	-8.52543
▁Ekim	-8.52638
▁para	-8.52787
▁Güney	-8.52841
▁Haziran	-8.52875
▁8	-8.52988
c	-8.53003
▁güzel	-8.53238
▁HAYIR	-8.53359
▁bilinen	-8.53399
▁izin	-8.53648
▁M	-8.53675
▁eğitim	-8.5388
▁pek	-8.54054
▁takip	-8.54099
▁Son	-8.54273
ndeki	-8.54349
▁sayıda	-8.54405
▁Bunu	-8.54499
▁erkek	-8.54708
▁Temmuz	-8.55049
▁rol	-8.55111
h	-8.5516
▁kullanarak	-8.55552
▁bile	-8.55588
lerinin	-8.55723
▁Yani	-8.55897
▁kazandı	-8.55969
▁temsil	-8.56007
▁doğal	-8.56231
▁geniş	-8.56243
▁Aşağıdaki	-8.56701
▁mevcut	-8.5672
▁geliyor	-8.5678
▁7	-8.56938
▁dedi	-8.57034
▁16	-8.57077
▁yerel	-8.57085
mi	-8.57107
▁Savaşı	-8.57345
tı	-8.5737
▁ayrıca	-8.57501
▁Ağustos	-8.57534
▁açısından	-8.57574
▁Nisan	-8.57711
▁potansiyel	-8.57818
▁hayal	-8.57946
▁Aralık	-8.58518
▁gerekiyor	-8.58656
lerine	-8.58769
f	-8.58867
▁sahiptir	-8.58868
▁yılı	-8.59155
▁anda	-8.5936
▁dil	-8.59502
▁fark	-8.59702
larla	-8.59926
▁bulunmaktadır	-8.59943
▁beş	-8.60065
▁York	-8.61409
al	-8.61447
▁Bunun	-8.61493
ü	-8.61967
▁emin	-8.62063
▁muhtemelen	-8.62095
▁on	-8.622
▁yanıt	-8.62555
▁onları	-8.62595
▁sağlamak	-8.62798
▁parçası	-8.62925
▁Amerikan	-8.63113
▁dair	-8.63331
larda	-8.63965
▁17	-8.63997
▁bulunur	-8.64195
▁c	-8.64517
lerde	-8.64553
▁bilgileri	-8.64609
▁sahibi	-8.64668
▁Film	-8.64751
▁of	-8.65308
on	-8.65329
▁hızlı	-8.65341
▁Amerikalı	-8.65349
▁tekrar	-8.65437
yu	-8.65519
▁İstanbul	-8.65785
▁hareket	-8.66191
▁orijinal	-8.66206
▁yılları	-8.66359
▁ettiği	-8.66397
▁hizmet	-8.66437
▁burada	-8.66696
▁30	-8.66917
▁toplam	-8.6724
▁konu	-8.67279
lerle	-8.67334
▁insanlar	-8.67393
▁saat	-8.67542
▁Şubat	-8.67578
▁hafta	-8.67649
▁inşa	-8.67693
▁*	-8.67785
▁düşük	-8.6791
ktan	-8.68014
ini	-8.68291
▁almak	-8.68618
▁artık	-8.68646
▁cümlede	-8.69122
▁K	-8.69167
▁olacak	-8.69209
▁yeterli	-8.69499
▁edildi	-8.69504
▁öne	-8.69519
▁14	-8.69553
▁kullanılan	-8.69632
ndaki	-8.69668
The	-8.69742
▁11	-8.6986
▁insanların	-8.69874
▁okuyun	-8.70051
▁aile	-8.70219
Evet	-8.71117
▁yoksa	-8.71449
▁Hipotez	-8.71552
▁dünya	-8.71697
▁oyun	-8.71703
▁olmuştur	-8.71976
x	-8.72027
▁gösteriyor	-8.72171
▁alıyor	-8.7229
▁önemlidir	-8.72327
▁milyon	-8.72511
▁futbol	-8.72799
▁merkezi	-8.73126
▁9	-8.733
▁gerekir	-8.73312
▁sağlar	-8.73343
larından	-8.7341
▁benzer	-8.73521
▁çoğu	-8.73951
▁dizi	-8.73952
▁sonucuna	-8.74114
▁Genel	-8.74262
▁kişisel	-8.74338
I	-8.74348
▁takım	-8.74427
▁alır	-8.74819
▁durum	-8.75105
▁katkıda	-8.75355
▁filmi	-8.75395
▁oyuncu	-8.75506
▁ek	-8.7594
▁ederek	-8.76076
▁verir	-8.76449
▁çıkan	-8.76923
▁söylüyor	-8.77256
▁resmi	-8.77498
teki	-8.7758
▁şehir	-8.77587
▁gereken	-8.77671
▁Büyük	-8.77751
(	-8.77911
▁ilçesine	-8.78355
▁13	-8.78525
▁ait	-8.78609
▁İngiltere	-8.78617
▁sosyal	-8.78618
ine	-8.78756
▁ortak	-8.78981
▁üst	-8.79075
E	-8.79252
▁tamamen	-8.79265
▁enerji	-8.79291
▁İki	-8.79581
▁olsa	-8.79651
▁görevde	-8.79681
▁seçim	-8.7971
▁başarılı	-8.79983
▁inceleme	-8.80111
▁etmeye	-8.80162
▁merkezine	-8.80265
▁ziyaret	-8.80301
taki	-8.80445
▁adında	-8.80636
im	-8.80744
▁orta	-8.8083
▁teşvik	-8.80917
▁yaygın	-8.80957
sini	-8.8105
▁aldığı	-8.81215
▁Ne	-8.81367
es	-8.81373
▁onların	-8.81459
▁doğdu	-8.81624
ar	-8.81662
▁makale	-8.817
▁G	-8.81711
▁hayır	-8.81764
▁Ve	-8.82057
▁iç	-8.82077
▁girdi	-8.82111
▁18	-8.82181
lerinden	-8.82652
▁adını	-8.82903
▁hemen	-8.82931
▁altı	-8.83226
▁T	-8.83227
ve	-8.83509
▁ay	-8.83595
▁arkadaşı	-8.83606
▁yaşam	-8.83728
▁etkili	-8.83885
▁ilgi	-8.83935
▁Filmin	-8.84098
▁beri	-8.84099
▁şarkı	-8.84369
▁geçen	-8.84443
▁alt	-8.84819
▁bulmak	-8.84914
su	-8.85241
▁gece	-8.85322
▁edilir	-8.85539
▁içerir	-8.85543
▁şeyi	-8.85602
el	-8.85673
▁Fransa	-8.85808
▁İkinci	-8.85832
▁siyasi	-8.85848
▁Bay	-8.85851
▁tanımlayın	-8.85997
▁dışında	-8.86115
▁başına	-8.86323
▁profesyonel	-8.86398
▁yana	-8.86551
▁iddia	-8.86648
▁sonucu	-8.8675
▁yaşında	-8.86892
▁kaldı	-8.87246
▁kalan	-8.87656
▁dakika	-8.87742
▁sık	-8.87851
▁olay	-8.88097
▁televizyon	-8.88288
sını	-8.88372
▁kelimeleri	-8.88426
▁harika	-8.88518
j	-8.88675
▁dolayı	-8.88695
▁Birliği	-8.89141
▁savaş	-8.89237
▁belirlemek	-8.89251
K	-8.89369
1	-8.89674
▁görünüyor	-8.89701
▁söz	-8.89914
us	-8.89971
▁almaktadır	-8.90049
▁Yukarıdaki	-8.90204
▁oldukça	-8.90228
▁Fransız	-8.9036
▁çalışan	-8.9067
▁olduğuna	-8.90683
▁4:	-8.91023
▁Ben	-8.91214
▁olası	-8.91222
Adım	-8.91236
▁Tarihçe	-8.91369
▁etme	-8.9167
▁uluslararası	-8.92281
▁25	-8.92347
▁the	-8.92506
▁bulunduğu	-8.92536
▁yanlış	-8.9255
is	-8.92725
▁metin	-8.92826
▁verin	-8.9284
▁el	-8.92882
▁sırada	-8.93176
▁üçüncü	-8.93319
▁başlar	-8.93626
▁nüfusu	-8.94062
▁6.	-8.94076
▁İyi	-8.94146
▁değer	-8.94308
▁derece	-8.94352
▁Diğer	-8.94464
kten	-8.94705
▁ürün	-8.94711
O	-8.94757
▁veriliyor	-8.94904
▁kelime	-8.94907
▁açıkça	-8.95629
▁yavaş	-8.95722
▁P	-8.9577
&	-8.95889
▁zorunda	-8.96227
▁kariyeri	-8.96253
liği	-8.96436
▁tahmin	-8.96528
▁seçenekler	-8.96748
▁yapımı	-8.97009
▁Aynı	-8.97803
ci	-8.98138
▁basit	-8.98256
▁önceki	-8.98355
▁bağlam	-8.98427
▁ilinin	-8.98498
▁Doğu	-8.98529
▁hiç	-8.98532
▁birini	-8.986
▁hipotezi	-8.98745
▁sürekli	-8.98825
▁kan	-8.98929
niz	-8.98932
▁bana	-8.99077
▁24	-8.992
▁ünlü	-8.99278
▁popüler	-8.99288
▁baş	-8.99524
▁II	-8.9957
▁alma	-8.99733
▁üzerindeki	-8.99798
▁çıkar	-8.99848
▁ölçüde	-8.99987
at	-8.9999
v	-9.00183
▁çalışma	-9.00188
▁Su	-9.00237
▁Ulusal	-9.00245
▁nedeni	-9.00834
▁Rusya	-9.00939
▁("	-9.01018
▁Almanya	-9.01023
▁gerektiğini	-9.01212
ge	-9.01258
▁doğum	-9.01306
to	-9.01428
olspan	-9.01559
▁beyaz	-9.01631
▁olanak	-9.01748
▁olmasına	-9.01858
ka	-9.02213
▁mücadele	-9.02436
F	-9.02464
▁zor	-9.02585
▁misiniz	-9.02676
▁sayısı	-9.0294
son	-9.03134
▁yüzden	-9.03134
▁gerekli	-9.03212
▁deniz	-9.03313
▁kesin	-9.03455
▁araya	-9.03912
▁F	-9.03948
▁yaşındaki	-9.04027
▁El	-9.04125
▁köy	-9.04179
▁spor	-9.042
▁Orta	-9.0431
▁sıcak	-9.04469
▁çalıştı	-9.04752
▁meydana	-9.04872
▁fiziksel	-9.04893
▁askeri	-9.05219
▁alanı	-9.05266
▁nüfus	-9.05273
▁U	-9.05439
▁gol	-9.05606
▁Afrika	-9.05673
larında	-9.05726
▁yoluyla	-9.0574
▁2010	-9.05831
▁anlama	-9.059
▁il	-9.05921
▁seçenek	-9.05989
▁üzerinden	-9.06092
▁Batı	-9.06097
▁şöyle	-9.06141
▁tavsiye	-9.06342
▁bilgiler	-9.06457
▁durumu	-9.0658
nu	-9.06855
")	-9.07123
▁Dolayısıyla	-9.07171
▁grubu	-9.07251
▁lütfen	-9.07295
▁H	-9.07336
▁Alman	-9.07343
▁ima	-9.07391
▁ülke	-9.07431
▁olun	-9.07691
▁bilim	-9.07728
▁dolu	-9.07893
▁bilgilere	-9.0792
▁21	-9.07959
▁22	-9.08021
▁Londra	-9.08104
▁yaşayan	-9.08115
▁Köy	-9.08424
ir	-9.08465
▁veren	-9.08686
uz	-9.08755
▁Bazı	-9.08758
▁sağlık	-9.088
▁olmadığı	-9.08842
▁yarda	-9.08957
▁ses	-9.08986
▁önünde	-9.08989
▁ayrı	-9.09061
▁oynadı	-9.09091
▁bize	-9.09108
▁yeri	-9.09277
T	-9.09459
▁amacıyla	-9.09477
▁neredeyse	-9.0958
▁Dr	-9.0963
▁öldü	-9.09646
▁adet	-9.09647
▁alın	-9.09655
▁bitki	-9.09682
ton	-9.09908
▁kırmızı	-9.10312
▁yapın	-9.10438
ik	-9.10516
▁takımı	-9.10524
il	-9.10669
G	-9.10718
▁isim	-9.10788
▁kim	-9.10791
▁adıyla	-9.10857
▁görevi	-9.1087
ra	-9.1087
▁diye	-9.11037
▁Bağlam	-9.1105
▁R	-9.11151
▁üyesi	-9.11174
▁İngilizceye	-9.11359
▁kendini	-9.11371
▁yine	-9.115
▁seçeneği	-9.11542
▁Osmanlı	-9.11664
▁Hindistan	-9.1171
▁kullanılır	-9.11749
▁yani	-9.11839
▁hayvan	-9.12134
▁şeyler	-9.12177
▁canlı	-9.12261
bu	-9.12495
et	-9.12575
▁yanında	-9.12925
▁evet	-9.12974
▁yıllık	-9.12978
▁arka	-9.13003
▁Roma	-9.13306
▁aşırı	-9.13314
▁destek	-9.13331
▁De	-9.13341
▁olmadan	-9.13359
▁çevirin	-9.13611
▁adımları	-9.13621
▁dolayısıyla	-9.13677
w	-9.13784
▁ihtiyaç	-9.13818
▁26	-9.13893
▁etkisi	-9.13904
▁Ödülü	-9.13953
▁dünyanın	-9.14103
▁adamın	-9.14162
▁devlet	-9.14351
▁oluşturmak	-9.14382
▁Kupası	-9.14421
▁La	-9.14444
▁tercih	-9.14464
▁0	-9.14766
▁polis	-9.14767
▁kitap	-9.14808
3	-9.14848
▁/	-9.15136
▁işaret	-9.15385
▁Öncül	-9.15391
▁itibaren	-9.15459
▁onlara	-9.15792
M	-9.1603
▁araştırma	-9.16043
▁işe	-9.16251
yan	-9.16282
ç	-9.16334
▁19	-9.1637
▁bulundu	-9.16392
▁halinde	-9.16412
▁Al	-9.16443
▁sona	-9.16455
P	-9.16759
▁ön	-9.16793
larıyla	-9.16845
▁23	-9.16915
▁W	-9.16929
sine	-9.16934
▁N	-9.16938
▁hipotez	-9.16955
▁yolu	-9.17045
▁ikisi	-9.1705
▁yere	-9.17169
▁ayrıntılı	-9.17223
▁çift	-9.1727
▁ekleyin	-9.17288
▁yapıyor	-9.17399
lt	-9.17443
Hayır	-9.17511
re	-9.17584
▁mükemmel	-9.18046
siz	-9.18189
▁San	-9.18196
▁ister	-9.18281
▁zengin	-9.18334
▁tespit	-9.18607
▁çekici	-9.18695
▁açtı	-9.18732
▁yoktur	-9.18823
▁dolar	-9.18844
it	-9.18956
▁Coğrafya	-9.18994
▁oğlu	-9.19133
▁katıldı	-9.19192
▁derin	-9.19239
▁edilmiştir	-9.19414
▁Ana	-9.19587
▁müşteri	-9.19633
▁zarar	-9.19693
▁sayı	-9.1972
▁cevabını	-9.19772
▁hatta	-9.19954
▁kaç	-9.19971
ş	-9.19989
▁Kore	-9.20131
▁yerde	-9.20162
▁bunların	-9.20245
▁Cumhuriyeti	-9.20273
▁kendisine	-9.20348
ını	-9.20446
▁test	-9.20737
▁Rus	-9.20796
▁kısmı	-9.20994
▁İşte	-9.21167
1.	-9.21173
▁Örneğin	-9.21179
▁sezon	-9.21222
▁–	-9.21227
▁Krallık	-9.21355
nız	-9.21496
za	-9.21511
”	-9.21571
▁kolay	-9.21801
▁almıştır	-9.21935
▁serbest	-9.21941
▁orada	-9.2207
▁Avustralya	-9.22132
▁kardeşi	-9.22174
▁Ligi	-9.22276
▁Partisi	-9.22431
▁kendisi	-9.22433
▁plan	-9.22466
ing	-9.22517
▁İspanyolca	-9.2256
▁İnceleme	-9.22581
▁anahtar	-9.22701
▁yazar	-9.22723
nızı	-9.22891
▁kaşığı	-9.22949
sel	-9.22997
▁Şu	-9.23069
▁düzenlenen	-9.23265
▁sanat	-9.23305
▁ince	-9.2331
nizi	-9.23489
siniz	-9.23541
▁hikaye	-9.24349
▁Başkan	-9.24365
ko	-9.24485
▁albüm	-9.24522
▁Çok	-9.24622
leriyle	-9.24661
▁güvenlik	-9.24682
▁Kanada	-9.24767
▁ulusal	-9.24793
▁“	-9.24815
▁miyiz	-9.25029
▁Çıktı	-9.25231
▁olma	-9.25552
▁sistemi	-9.25629
▁babası	-9.25687
▁yapmaya	-9.25737
▁27	-9.25907
▁verici	-9.26066
▁Paris	-9.26071
▁Bölüm	-9.26083
▁&	-9.26377
▁ürünü	-9.26473
▁James	-9.26532
▁hayatta	-9.26552
▁ilçe	-9.26618
▁sorun	-9.26641
▁uzaklıktadır	-9.26659
▁ayında	-9.26801
▁güç	-9.26884
Verilen	-9.27073
▁kendisini	-9.27111
iz	-9.27121
▁günlük	-9.27212
▁7.	-9.2722
▁Ama	-9.27312
▁28	-9.27397
▁vermek	-9.27439
▁ülkenin	-9.27507
▁bölge	-9.27553
▁2012	-9.27676
▁açıklama	-9.27756
▁Şarkı	-9.27851
▁yoğun	-9.27884
▁karmaşık	-9.27892
▁100	-9.28078
▁Eğer	-9.28105
▁St	-9.28106
nün	-9.2846
▁Uluslararası	-9.28517
▁David	-9.28593
mak	-9.28672
▁ekonomik	-9.28781
▁başkanı	-9.28836
▁gösterir	-9.28988
sına	-9.29153
▁incelemenin	-9.29178
▁millî	-9.29534
lama	-9.29704
▁Açıklama	-9.29746
▁tweet	-9.29887
▁ifadesi	-9.30177
▁aslında	-9.30248
lerinde	-9.30271
▁güneş	-9.30305
▁yiyecek	-9.30326
▁hâlâ	-9.30504
bir	-9.3069
▁giriş	-9.30855
▁metre	-9.31172
▁ağır	-9.31418
▁anlayın	-9.31425
▁albümü	-9.31475
▁teknik	-9.31777
▁benzersiz	-9.31872
▁birinin	-9.32005
▁erken	-9.32065
▁ettiğini	-9.3212
▁ilişki	-9.32137
▁başlık	-9.32271
▁öncül	-9.32292
▁seyahat	-9.32376
▁iletişim	-9.32403
▁veriyor	-9.32472
ter	-9.32577
▁City	-9.32589
▁ciddi	-9.32754
▁Şampiyonası	-9.32905
▁okul	-9.32986
▁Parti	-9.33036
▁etmesi	-9.33402
▁kızı	-9.33461
ch	-9.33512
▁birinci	-9.3353
▁araba	-9.33717
▁edilebilir	-9.33826
▁mutlu	-9.33933
▁ben	-9.3399
▁verdiği	-9.34201
ri	-9.34238
▁duygusal	-9.34344
▁yanıtlayın	-9.34412
▁zamanlar	-9.3446
▁Tüm	-9.34511
▁şehrin	-9.346
▁listesi	-9.34645
▁J	-9.34711
▁web	-9.34836
▁video	-9.34966
▁geleneksel	-9.34973
▁edilmiş	-9.34993
▁dönemde	-9.3504
▁söyler	-9.35252
▁onunla	-9.35421
▁Başkanı	-9.35448
▁Me	-9.35499
▁sanatçı	-9.35621
H	-9.35623
▁dış	-9.35782
▁ara	-9.35785
▁attı	-9.35806
▁İtalya	-9.35822
▁buna	-9.35831
▁öncelikle	-9.35846
▁bağlantı	-9.36011
mız	-9.36012
▁Paul	-9.36049
ley	-9.36108
▁aracılığıyla	-9.36185
▁sınıf	-9.36191
▁performans	-9.36562
▁siyah	-9.36709
▁bakış	-9.36839
mı	-9.36839
han	-9.36879
do	-9.36997
luk	-9.37142
▁türü	-9.37197
▁Michael	-9.37239
▁döneminde	-9.37298
▁geçti	-9.37327
▁Tom	-9.37566
▁etki	-9.3757
▁George	-9.37595
R	-9.3762
lığı	-9.37669
▁dönem	-9.37889
▁biridir	-9.37901
▁oluşur	-9.38067
cı	-9.38217
▁yaş	-9.38345
4	-9.38409
▁Grup	-9.38422
▁yaşlı	-9.38732
▁anlamı	-9.38847
▁süreci	-9.39004
▁Japonya	-9.39005
▁yarı	-9.39056
▁gitti	-9.3915
▁çalışıyor	-9.39164
▁grubun	-9.39297
ed	-9.39334
ba	-9.39475
▁Trump	-9.3948
▁şirket	-9.39501
▁dışı	-9.39557
▁aktif	-9.398
▁yerini	-9.39836
▁şeklinde	-9.39991
▁Lütfen	-9.40123
ke	-9.4013
▁Hava	-9.40161
▁2011	-9.40304
▁oyuncusu	-9.40365
▁şunlardır	-9.40674
tu	-9.40723
ia	-9.40737
▁içindeki	-9.40897
▁aday	-9.4091
▁sağ	-9.41003
▁sezonunda	-9.41139
▁yemeği	-9.41153
dür	-9.41302
▁çevir	-9.41307
▁sorunu	-9.4135
mış	-9.41364
▁arkadaş	-9.41384
▁L	-9.41386
lü	-9.41436
▁ederken	-9.41512
▁karşılık	-9.41574
co	-9.4164
as	-9.41642
▁bardağı	-9.41666
▁hipotezin	-9.41682
▁bazen	-9.41836
▁Ankara	-9.41908
▁geçerli	-9.42075
lo	-9.42081
▁incelemesi	-9.42128
▁yayın	-9.42502
▁etmektedir	-9.42546
va	-9.4264
▁boş	-9.42768
▁hızla	-9.42822
▁Lig	-9.42917
▁kurulan	-9.42971
▁mezun	-9.42995
▁29	-9.43012
▁V	-9.43155
▁benim	-9.43173
▁Nehri	-9.43305
▁yüzde	-9.4352
st	-9.43534
▁Burada	-9.43599
▁yayınlandı	-9.43695
▁haber	-9.43892
▁2013	-9.43906
▁bağımsız	-9.43964
▁eve	-9.43966
▁böylece	-9.44023
▁çıkarın	-9.44117
▁karakter	-9.44167
▁yıldız	-9.44218
▁bahsediyor	-9.44227
▁yedi	-9.44266
▁Adam	-9.44268
▁kat	-9.44272
▁hala	-9.44284
▁ortadan	-9.44334
miz	-9.44364
▁Y	-9.44383
▁TV	-9.44386
▁2009	-9.44711
▁eşit	-9.44945
▁edici	-9.45079
▁dans	-9.45204
▁kullanın	-9.45303
▁yayınlanan	-9.45318
▁sağlayan	-9.45338
▁güvenli	-9.45346
▁İtalyan	-9.45391
▁çalışır	-9.45396
gt	-9.45425
▁gizli	-9.4543
▁karşıya	-9.45464
▁servis	-9.4554
min	-9.45582
sız	-9.45583
▁etrafında	-9.45598
os	-9.45653
▁sonuç	-9.45671
▁şeyin	-9.45743
▁ortalama	-9.4576
▁2014	-9.4609
▁bulun	-9.46144
▁edebilir	-9.46169
L	-9.46204
ur	-9.4631
▁olabileceğini	-9.46401
▁anlamak	-9.46545
▁kelimeler	-9.46546
▁Artık	-9.46602
▁değildi	-9.46641
▁arada	-9.46747
▁50	-9.4678
no	-9.46796
ha	-9.46926
▁Göreviniz	-9.46974
▁cümledeki	-9.47037
▁yapmıştır	-9.47054
be	-9.47255
▁kullanıcı	-9.47446
▁Ek	-9.4755
▁Merkezi	-9.47552
▁pozitif	-9.47603
nü	-9.47691
▁--	-9.47712
▁nerede	-9.47773
▁mil	-9.47794
▁bağlama	-9.47803
▁kapsamlı	-9.47913
▁altın	-9.47946
▁2000	-9.47983
▁modern	-9.48032
▁Re	-9.48203
▁eğlenceli	-9.48236
▁eğer	-9.48283
▁oluyor	-9.48335
▁Başlık	-9.48359
▁uzak	-9.48516
▁Le	-9.48646
▁küresel	-9.4876
▁konuşma	-9.48766
▁İmparatorluğu	-9.48901
▁ila	-9.48902
▁gider	-9.49154
▁belediye	-9.49163
▁Devlet	-9.49169
▁bunları	-9.4919
▁ışık	-9.49238
▁edilmesi	-9.49342
▁kültürel	-9.49378
▁koruma	-9.49765
▁Asya	-9.49837
▁hedef	-9.49845
▁Yüksek	-9.49972
▁istiyor	-9.50082
▁2006	-9.50086
▁bilgisayar	-9.50137
▁Kullanımı	-9.50152
▁annesi	-9.50155
ist	-9.50346
▁Fransızca	-9.5043
▁fikir	-9.50451
N	-9.50519
▁Kaliforniya	-9.50566
▁Hangi	-9.50812
▁şimdi	-9.5084
▁olmasını	-9.50879
▁bilinir	-9.50934
▁Eski	-9.5099
▁yönetim	-9.51028
▁bin	-9.51052
▁gösteren	-9.51055
▁yüzyılın	-9.51058
▁31	-9.51129
▁b	-9.5117
▁Japon	-9.5117
▁metni	-9.51196
▁Bununla	-9.51299
tur	-9.51355
▁2008	-9.51376
▁başında	-9.51478
▁çocuğu	-9.51504
▁şarkıcı	-9.51666
▁köpek	-9.51672
▁dışarı	-9.51725
▁akşam	-9.5189
sin	-9.51933
miş	-9.51953
▁yılından	-9.51965
▁sorumlu	-9.5211
sen	-9.52115
Cevap	-9.52232
▁Doğru	-9.52308
▁tatlı	-9.52361
▁kitabı	-9.5238
▁kalma	-9.52484
▁aracı	-9.52503
▁oyunu	-9.52571
▁William	-9.526
▁yazdı	-9.52661
▁alanında	-9.5269
▁halde	-9.52779
▁miktarda	-9.52828
▁verildi	-9.52843
▁tanımı	-9.52875
▁uygulama	-9.52928
liğe	-9.52977
inin	-9.53087
▁altına	-9.53092
▁Jack	-9.53356
▁ilham	-9.53359
▁noktası	-9.53364
▁adımı	-9.53473
▁Bakanlığı	-9.53557
▁net	-9.53591
▁dayalı	-9.53594
▁çeviri	-9.5363
▁belirtiyor	-9.53648
▁sahne	-9.53717
bi	-9.53832
▁X	-9.53847
ga	-9.53936
▁sayısını	-9.54011
▁2015	-9.54014
▁duygu	-9.5406
▁birbirine	-9.54148
▁alarak	-9.54157
▁rock	-9.54487
lan	-9.54553
▁hayatı	-9.54567
▁oranı	-9.54645
▁sert	-9.5474
▁anlamını	-9.54752
▁heyecan	-9.54757
▁takdir	-9.54823
▁Hayatı	-9.54827
▁örneği	-9.5491
▁telefon	-9.54914
▁hafif	-9.54976
▁yeşil	-9.55015
▁köydür	-9.55022
▁şeker	-9.55032
▁şunları	-9.55039
▁ihtiyacı	-9.55114
▁yapı	-9.55128
▁Makale	-9.55158
▁teklif	-9.55158
▁yaşadığı	-9.55224
▁içine	-9.55256
W	-9.55299
▁dili	-9.55334
▁terk	-9.55405
▁temiz	-9.5555
sal	-9.55561
▁artan	-9.55636
▁anlatıyor	-9.55741
▁çözün	-9.55813
▁yıllarda	-9.55834
▁elektrik	-9.55846
▁atıfta	-9.559
▁çapında	-9.55938
▁derecede	-9.55993
▁öğrenci	-9.56018
▁yazarı	-9.56031
▁Park	-9.56124
▁belirtiliyor	-9.5618
Başlık	-9.56185
▁veri	-9.56196
▁durumunda	-9.5623
ması	-9.56387
▁ölüm	-9.56527
▁restoran	-9.56559
▁Sam	-9.56561
▁olmaya	-9.56579
▁korumak	-9.56708
▁seçildi	-9.56811
▁soğuk	-9.56817
▁puan	-9.56874
▁başlayan	-9.56905
▁cevaplamak	-9.56917
▁paragraf	-9.56957
▁Konu	-9.57001
▁etmeyi	-9.5708
▁şirketi	-9.57171
go	-9.57178
U	-9.57197
▁koyun	-9.57234
▁şunu	-9.57312
lardı	-9.57324
▁tutarlı	-9.57387
▁beni	-9.57585
▁normal	-9.57776
▁bölgesinde	-9.5781
▁eylem	-9.57878
▁amacı	-9.58016
▁memnun	-9.58039
▁ailesi	-9.5805
▁ileri	-9.58161
▁rahat	-9.58309
▁40	-9.58351
▁düzenli	-9.58522
▁yıllarında	-9.58522
Şu	-9.58536
▁karşılaştırın	-9.58601
▁açıdan	-9.58621
▁çıkıyor	-9.58862
▁spesifik	-9.58927
▁yandan	-9.58987
▁forma	-9.59006
▁Kara	-9.59052
zi	-9.59095
▁et	-9.59112
▁çoğunlukla	-9.59131
▁insanları	-9.59228
▁kadının	-9.5969
ek	-9.59703
▁hazır	-9.59723
▁geç	-9.59726
▁cümlesi	-9.59769
5	-9.59792
▁olmalıdır	-9.59812
ro	-9.59937
▁bilgiyi	-9.59939
▁bazıları	-9.59998
▁Bayan	-9.60027
▁and	-9.60027
▁döndü	-9.60065
▁yaparak	-9.60153
▁İspanya	-9.6017
Y	-9.60251
spor	-9.60267
land	-9.60272
▁yapma	-9.60455
▁sinema	-9.60486
▁Giriş	-9.60505
▁örnek	-9.60581
kan	-9.60637
▁Küçük	-9.60658
▁hayatını	-9.60729
▁transfer	-9.60776
ner	-9.6083
ır	-9.6092
▁yola	-9.60946
"),	-9.60949
▁deneyim	-9.61094
▁yılına	-9.61103
▁unutmayın	-9.61166
men	-9.61193
▁8.	-9.61482
▁yorum	-9.61527
▁katı	-9.61533
▁asla	-9.61606
▁dini	-9.61657
▁Washington	-9.61677
▁bağlamda	-9.61779
▁yasa	-9.61788
dığını	-9.61826
ber	-9.61946
▁adamı	-9.6202
▁sağlıklı	-9.62033
▁sağladı	-9.62075
V	-9.62161
ze	-9.62162
▁İran	-9.62205
▁parça	-9.62234
▁mantıklı	-9.62246
▁düşünün	-9.62313
▁ilgilidir	-9.62421
▁tarihli	-9.62452
oğlu	-9.62484
▁Man	-9.62489
!"	-9.62498
▁saha	-9.62584
▁maruz	-9.62659
▁yüz	-9.62694
▁d	-9.62698
▁Beyaz	-9.62794
▁sahipliği	-9.62815
▁yapar	-9.62845
▁diyor	-9.62894
▁kazanan	-9.6291
▁yaz	-9.62911
▁suyu	-9.62924
▁yabancı	-9.62981
▁Spor	-9.63015
▁gördü	-9.63039
▁soruya	-9.63085
▁2016	-9.63095
mek	-9.63189
unu	-9.63358
ran	-9.63361
▁çevirmek	-9.63419
▁almaya	-9.63424
com	-9.63453
▁ikna	-9.63467
▁tarih	-9.63468
▁varsa	-9.6354
▁single	-9.63596
▁halk	-9.6366
▁2007	-9.63704
▁madalya	-9.63724
▁giderek	-9.63873
▁yağ	-9.63903
▁Britanya	-9.63926
▁bundan	-9.63964
▁kalır	-9.64165
▁kendine	-9.6421
▁talep	-9.64242
▁taşıyan	-9.64306
▁Robert	-9.64506
▁2005	-9.6452
J	-9.64555
ly	-9.64562
▁deneyimi	-9.64655
▁çocuğun	-9.64708
▁hakkındaki	-9.64823
der	-9.64905
▁suç	-9.65012
Ben	-9.65057
▁kuruldu	-9.65108
▁yüzyılda	-9.6511
▁çevre	-9.65241
▁seçenekleri	-9.65274
▁makul	-9.65276
▁insanın	-9.65348
▁eser	-9.6538
▁sıklıkla	-9.65424
▁yatırım	-9.6545
ak	-9.65453
▁kariyerine	-9.65455
▁bağlamı	-9.65465
▁kahve	-9.65631
▁değerli	-9.65768
▁çay	-9.6583
▁getiriyor	-9.65835
▁çevrimiçi	-9.65917
▁County	-9.65928
▁ders	-9.66029
▁kalp	-9.66037
▁kullanımı	-9.6606
gi	-9.66231
▁ilan	-9.66345
▁mavi	-9.66366
▁yan	-9.66556
▁bina	-9.66579
▁Çözüm	-9.66605
▁başkenti	-9.6669
▁yönünde	-9.6673
▁makalenin	-9.66758
arak	-9.66877
▁getirdi	-9.66898
▁sürüyor	-9.66912
cu	-9.66973
▁Futbol	-9.67063
▁itibarıyla	-9.67089
Görev	-9.67281
sinin	-9.67398
liğini	-9.67427
▁parti	-9.67446
▁Orijinal	-9.67462
▁görmek	-9.67481
▁kullanan	-9.67528
▁verildiğinde	-9.67574
▁tedavi	-9.67599
▁metal	-9.67621
▁düşünüyor	-9.67778
▁sol	-9.67778
▁buz	-9.67872
▁dile	-9.68004
▁Er	-9.68067
▁Bölgesi	-9.68155
▁Hayır	-9.68226
▁misin	-9.68262
▁silah	-9.68333
▁doğumlu	-9.6843
▁yılda	-9.68591
▁çizgi	-9.68724
▁Peter	-9.68833
▁giden	-9.6885
▁Los	-9.68868
▁eşi	-9.68953
▁Özel	-9.68978
▁fiyat	-9.69003
▁tercüme	-9.69053
▁sekiz	-9.69069
sının	-9.69095
▁verilir	-9.69102
▁olağanüstü	-9.69125
▁kar	-9.69261
▁Fakültesi	-9.69332
▁imkansız	-9.69359
▁bunlar	-9.69389
▁açabilir	-9.69422
q	-9.69441
▁arama	-9.69458
▁sorunları	-9.69567
▁mali	-9.69569
▁sezonu	-9.69637
▁Yaz	-9.69847
dığı	-9.69882
▁olacağını	-9.69936
▁oynadığı	-9.69983
▁adına	-9.70159
▁Cümlenin	-9.70209
lığa	-9.70214
▁Mary	-9.70237
▁Ali	-9.70268
▁ulaşım	-9.70286
▁kaynak	-9.70292
▁tehdit	-9.70343
▁sabah	-9.70354
▁oynayan	-9.7038
▁akıl	-9.70447
ov	-9.70545
▁yerleşim	-9.706
NGC	-9.70709
▁Şehir	-9.70717
posta	-9.70739
▁işi	-9.70932
▁şehri	-9.70937
▁kesinlikle	-9.71022
▁rahatsız	-9.71034
▁sürecin	-9.71403
id	-9.71503
▁kaynağı	-9.71508
▁nesne	-9.71517
▁bölüm	-9.71533
▁bulur	-9.71623
▁bölgesi	-9.71629
▁konum	-9.71666
▁2004	-9.71842
▁ticari	-9.7194
▁oy	-9.7211
▁düzeyde	-9.72114
▁at	-9.72143
▁kendilerini	-9.7224
▁Toplam	-9.72241
▁hoş	-9.72243
▁keyif	-9.72263
▁dilinde	-9.72318
▁davet	-9.72336
▁gelecek	-9.72347
▁kalıcı	-9.72359
▁vücut	-9.72516
çi	-9.72648
▁Bar	-9.72661
▁yapıldı	-9.72735
▁acı	-9.72854
▁maç	-9.72888
▁hükümet	-9.72934
ger	-9.72967
="4	-9.73013
▁eğlence	-9.73071
▁Müzik	-9.73078
ie	-9.73084
▁an	-9.73248
▁Ay	-9.73479
▁sağlanan	-9.73535
▁liste	-9.73542
▁kurdu	-9.73545
▁ısı	-9.73561
▁Oy	-9.73597
▁çıkardı	-9.73631
▁Tek	-9.73674
ım	-9.73717
▁önde	-9.73724
▁din	-9.73815
▁incelemeyi	-9.73815
▁kara	-9.73863
▁çocuklar	-9.74
▁çalışmaları	-9.74008
▁gerektirdiği	-9.7416
▁Mevcut	-9.74161
▁çıkarmak	-9.74307
▁konuyu	-9.74429
▁zayıf	-9.74469
▁konusundaki	-9.74479
▁arasından	-9.74485
bo	-9.74517
▁Yunan	-9.74535
▁İç	-9.74574
erek	-9.74672
▁5:	-9.74776
▁belirtir	-9.7495
tür	-9.74956
▁geçirdi	-9.74988
▁verme	-9.75046
▁Angeles	-9.75213
len	-9.75237
▁arası	-9.7526
0	-9.75333
▁yakınında	-9.75344
▁kentinde	-9.75445
La	-9.75449
▁araç	-9.75481
▁Lee	-9.75547
▁eyalet	-9.7559
▁geçmiş	-9.75714
▁etmiştir	-9.75717
ul	-9.75778
▁başlangıçta	-9.7584
▁üyeleri	-9.7585
▁bölümü	-9.75864
▁Co	-9.75931
▁bütün	-9.76048
ry	-9.76074
▁toprak	-9.76099
▁Na	-9.76115
▁cm	-9.76256
▁ilişkili	-9.7642
▁kişiler	-9.76551
▁medya	-9.76648
▁sonucunda	-9.76663
▁aşağı	-9.76695
▁yasal	-9.7673
▁Güneş	-9.76762
▁olduğunda	-9.76804
▁sıkı	-9.76828
▁cinsel	-9.76831
▁sonucunu	-9.76904
▁yönetimi	-9.76945
▁ödeme	-9.77018
▁böyle	-9.7705
▁Mark	-9.77052
▁karşısında	-9.7713
▁anne	-9.7713
▁dördüncü	-9.77152
▁lideri	-9.77168
▁Birkaç	-9.77173
▁boy	-9.77197
▁edecek	-9.77237
▁to	-9.77281
▁Hint	-9.77283
▁Han	-9.77353
▁Baş	-9.77437
▁başarı	-9.77514
▁Kim	-9.77568
▁başlığı	-9.77597
▁Li	-9.77607
▁uyum	-9.7761
▁idi	-9.77639
gen	-9.77695
▁görevin	-9.77837
ol	-9.77842
▁bugün	-9.77939
▁süreç	-9.77966
▁Almanca	-9.78037
▁Mısır	-9.78049
▁m	-9.78104
[	-9.78128
▁puanı	-9.78146
▁Bunlar	-9.78164
X	-9.78202
▁Buna	-9.78232
pa	-9.7824
▁nehir	-9.78256
▁radyo	-9.7828
▁vermeye	-9.78336
▁gerek	-9.78426
kar	-9.78492
sanız	-9.78686
▁seçmeli	-9.78767
▁süren	-9.78787
▁birleştirin	-9.78848
▁tadını	-9.78876
▁alternatif	-9.78933
▁oksijen	-9.79038
▁müziği	-9.79051
or	-9.79108
▁cümleleri	-9.79161
▁Hem	-9.79172
▁verileri	-9.79192
▁Frank	-9.79273
▁Türkçe	-9.79298
▁Kadın	-9.79322
▁olsun	-9.79368
veya	-9.79456
ver	-9.79582
En	-9.79624
▁ateş	-9.79639
▁bulunuyor	-9.79661
▁terimi	-9.79665
▁eğitimi	-9.79683
leme	-9.7975
▁Smith	-9.79772
▁zaten	-9.79777
▁bölgede	-9.79996
▁bahsedilen	-9.80013
▁sorusunun	-9.80027
▁sınır	-9.80057
▁harf	-9.80185
▁Sa	-9.8031
▁maçı	-9.80313
▁önemini	-9.80427
▁Birinci	-9.80435
▁yalnız	-9.80445
▁Meksika	-9.80509
▁tiyatro	-9.8054
▁maçta	-9.80581
mo	-9.80583
▁stüdyo	-9.80638
▁ödül	-9.80653
▁nefes	-9.80659
▁henüz	-9.80692
th	-9.80699
▁Özetle	-9.80713
İngilizce	-9.8073
▁baskı	-9.80735
tik	-9.80832
▁çocukların	-9.80885
vi	-9.80927
▁Size	-9.80979
▁verimli	-9.80985
▁denklemin	-9.81045
▁kelimesi	-9.81057
▁futbolcudur	-9.81127
▁Olimpiyatları	-9.81129
▁babasının	-9.81205
▁Seçenek	-9.81241
▁bilimsel	-9.81252
▁hak	-9.8138
ers	-9.8141
▁çözüm	-9.8146
▁arkadaşları	-9.81528
nıza	-9.81596
br	-9.81598
▁yazılı	-9.81605
▁teslim	-9.81608
▁üniversite	-9.81623
▁sıvı	-9.81695
▁gaz	-9.81788
▁sonuçta	-9.81802
▁duyguyu	-9.81803
▁dünyaya	-9.81826
▁istedi	-9.81828
▁Savaş	-9.8184
▁yumurta	-9.81886
▁Ma	-9.81891
▁hangisi	-9.82048
▁Bakanı	-9.82178
▁cevaplayınız	-9.82184
▁kişilerin	-9.82216
▁inç	-9.82264
▁özellikleri	-9.82298
▁kimyasal	-9.82357
▁tasvir	-9.8237
▁Belediye	-9.82419
▁nükleer	-9.82548
iş	-9.82603
▁ilişkisi	-9.82646
▁Charles	-9.82789
▁tarzı	-9.82937
tar	-9.83002
▁evde	-9.83063
▁Okulu	-9.83094
▁makaleyi	-9.83113
▁Ar	-9.83124
▁işbirliği	-9.8317
amp	-9.83237
▁Sonunda	-9.83279
▁9.	-9.8331
▁sayesinde	-9.83406
▁Meclisi	-9.83472
▁sonu	-9.83483
▁altındaki	-9.835
Ayrıntılı	-9.83531
▁saygı	-9.83601
▁çalışmaya	-9.83652
▁Tarihi	-9.8373
▁Tam	-9.83753
▁(1	-9.83756
inde	-9.83854
ru	-9.83985
▁Halk	-9.83985
Z	-9.84039
▁uzay	-9.8407
▁tipik	-9.84084
▁Enstitüsü	-9.84175
▁mantık	-9.84177
▁görsel	-9.84215
▁Bilim	-9.84225
▁metnin	-9.84272
▁İnsanlar	-9.84272
▁süredir	-9.84283
▁gıda	-9.84329
▁sürdü	-9.84333
Cümle	-9.84422
ster	-9.84445
▁piyasay	-9.84468
▁okuma	-9.84477
▁programı	-9.8448
▁akışı	-9.84503
▁Kısa	-9.84536
▁ulaştı	-9.84558
é	-9.8461
ck	-9.84658
▁Thomas	-9.84667
▁Hollanda	-9.84684
▁(),	-9.84697
▁sınırlı	-9.84705
▁zeka	-9.84712
▁kuru	-9.84756
ja	-9.84803
▁renk	-9.84992
lük	-9.84993
▁19.	-9.85017
▁tepki	-9.8503
ör	-9.85134
▁Cevabınızı	-9.85142
mesi	-9.85162
▁değerlendirin	-9.85198
▁kuzey	-9.85405
▁değişiklik	-9.85424
▁yumuşak	-9.8553
▁Deniz	-9.85552
▁Kariyeri	-9.85626
▁Martin	-9.85734
▁bıraktı	-9.85835
▁alıp	-9.8586
▁İrlanda	-9.85899
▁kullanmak	-9.859
▁yıllar	-9.85904
▁tuz	-9.85978
▁oluşturur	-9.86067
▁suyun	-9.86092
▁varlığı	-9.86103
▁resim	-9.86145
▁savunma	-9.86279
▁girer	-9.86282
ecek	-9.86312
▁asit	-9.86327
▁getirir	-9.86345
▁Joe	-9.86354
2'	-9.86442
▁sabit	-9.86512
▁varabilir	-9.86536
▁dizisi	-9.86672
▁Gerekçe	-9.86703
▁buldu	-9.86707
▁Ak	-9.86752
▁emekli	-9.86832
ji	-9.86847
▁İsrail	-9.86993
▁güney	-9.8701
▁sağlıyor	-9.87064
▁gerektiği	-9.87084
▁kişilik	-9.87167
▁60	-9.8719
▁dostu	-9.87262
▁sistem	-9.87272
▁2002	-9.87288
▁gücü	-9.87309
▁2020	-9.87317
▁çalışırken	-9.87328
▁Pa	-9.87419
▁sporcu	-9.87529
▁elinde	-9.87734
6	-9.87778
▁İncelemeyi	-9.87831
▁klasik	-9.87984
▁Kilisesi	-9.87986
ev	-9.88085
▁eylemi	-9.88146
ut	-9.88162
İşte	-9.88192
ip	-9.88217
▁sunulan	-9.88256
▁çıktısını	-9.88317
▁vurguluyor	-9.88369
▁ediliyor	-9.88441
▁dolaylı	-9.88484
▁herkes	-9.88552
▁sonuca	-9.88583
▁fotoğraf	-9.88615
▁başlıyor	-9.88655
sinde	-9.88694
▁geçiş	-9.88794
▁Anne	-9.88807
▁balık	-9.88838
mıştır	-9.88887
▁Google	-9.88921
▁değeri	-9.88947
▁tarihleri	-9.88951
▁tanınan	-9.89061
▁yazdığı	-9.89085
▁vb	-9.8924
▁hepsi	-9.89242
▁ilginç	-9.89264
▁göstermektedir	-9.89309
▁değerini	-9.89442
▁isimli	-9.89477
▁düzey	-9.89516
▁Önerme	-9.89575
lin	-9.89584
▁sırasıyla	-9.89677
▁öncülün	-9.89726
▁isteyen	-9.89726
▁sonrasında	-9.89813
▁tane	-9.8984
her	-9.89953
▁parlak	-9.89968
▁şehrinde	-9.9
▁sunuyor	-9.90015
▁doğrudur	-9.9003
▁batı	-9.90062
▁filminde	-9.90079
▁kredi	-9.90116
].	-9.90139
▁yılın	-9.90205
▁edip	-9.90224
▁Sovyet	-9.90402
*	-9.90444
▁bağ	-9.90565
▁bahsediliyor	-9.90576
▁Z	-9.90578
▁başlarında	-9.9061
▁2003	-9.90611
▁anlamlı	-9.90739
î	-9.90751
▁taş	-9.90807
▁olabilecek	-9.90925
abilir	-9.90935
▁kayıt	-9.91018
▁hukuk	-9.91058
▁Fince	-9.91101
▁denir	-9.91121
▁halka	-9.91209
▁hayat	-9.91223
▁kafa	-9.91229
▁yapısı	-9.91245
ö	-9.91258
▁2001	-9.91258
▁Kral	-9.91295
▁korku	-9.91435
▁An	-9.91567
▁sonrası	-9.91568
▁görür	-9.91646
▁filmde	-9.91663
▁besin	-9.91671
▁Onun	-9.91687
▁Öte	-9.91728
▁şarkısı	-9.91733
▁duygusu	-9.91739
▁madde	-9.91783
▁Noel	-9.91862
▁yapması	-9.91906
▁No	-9.91983
▁giren	-9.92013
▁durumlarda	-9.92035
▁komedi	-9.92076
acak	-9.92119
the	-9.92146
▁evi	-9.92161
▁Van	-9.92161
▁tuhaf	-9.92168
8	-9.92181
▁geldiğini	-9.92256
▁Pro	-9.92326
▁zamanı	-9.92344
İki	-9.92379
ii	-9.92579
▁Polis	-9.92612
▁uyuşturucu	-9.92616
▁çocukları	-9.92632
▁İspanyol	-9.92636
mer	-9.92775
▁Gerçek	-9.92825
▁endişe	-9.92867
ça	-9.92895
▁kanıt	-9.92925
▁Yahudi	-9.92926
▁alınan	-9.92931
yken	-9.92988
▁ortasında	-9.93131
▁hasta	-9.93198
▁In	-9.93208
▁yaparken	-9.93208
▁Ardından	-9.93218
▁günde	-9.93267
▁başarısız	-9.93351
▁tıbbi	-9.93365
▁Öğretmen	-9.9347
▁teknoloji	-9.93588
▁alışveriş	-9.93649
▁Paşa	-9.93652
▁Metin	-9.93654
7	-9.93689
▁ortam	-9.93785
▁Bey	-9.93901
▁Kuvvetleri	-9.94039
▁Talimatlar	-9.94123
▁Polonya	-9.94222
▁yapay	-9.9427
▁metinde	-9.94274
▁eksik	-9.94285
gan	-9.94349
▁çözmek	-9.94397
▁üye	-9.94399
▁meyve	-9.94552
▁doğan	-9.94552
▁başkan	-9.94586
▁gösterdi	-9.94596
lanan	-9.9461
▁Mike	-9.9471
▁yayınladı	-9.94751
▁geçici	-9.94906
▁sıcaklık	-9.94908
▁Richard	-9.94942
▁kuş	-9.95077
▁yağmur	-9.95081
▁tip	-9.95086
▁kendisinin	-9.95109
▁ö	-9.95189
▁sarı	-9.95194
van	-9.95276
▁Eğitim	-9.954
▁yaptığını	-9.95449
▁soruyor	-9.95464
▁Böylece	-9.95502
▁Pazar	-9.95507
▁Altın	-9.95587
▁Avusturya	-9.95603
▁ailesinin	-9.95612
▁Ka	-9.95621
▁sözleşme	-9.95667
▁yoktu	-9.95671
▁model	-9.95695
▁Yunanistan	-9.95776
▁tamamladı	-9.9579
▁Mar	-9.95809
▁Bugün	-9.95862
▁Se	-9.95918
▁Sanat	-9.95949
Ne	-9.95976
▁Alex	-9.95993
▁final	-9.96028
▁süt	-9.96086
▁verilecek	-9.96192
▁yaratıcı	-9.96198
▁kullanıyor	-9.96203
▁So	-9.96235
▁ticaret	-9.96252
▁anlam	-9.96376
▁sonuçları	-9.96462
▁oynuyor	-9.96498
▁Merkez	-9.96526
▁hücre	-9.96538
▁kilometre	-9.96649
▁Go	-9.96693
▁Henry	-9.96693
▁hikayenin	-9.96699
▁alanda	-9.96722
▁başta	-9.96727
▁listesinde	-9.96773
▁içerisinde	-9.96888
▁kayıtlarında	-9.96912
▁kamu	-9.96948
▁konusunu	-9.96954
▁takımın	-9.96958
▁ifadeyi	-9.96979
II	-9.97017
▁ülkede	-9.97131
▁Te	-9.9715
▁oyuncak	-9.97152
▁evinde	-9.97185
▁top	-9.97251
▁Ha	-9.97336
▁Irak	-9.97345
▁olmuş	-9.97362
▁tank	-9.97523
▁x	-9.9768
▁2012'	-9.97703
▁paket	-9.97712
▁Ödülleri	-9.9774
▁roman	-9.97742
▁2017	-9.97752
▁önlemek	-9.97768
▁bireysel	-9.97796
▁Üç	-9.97876
▁İslam	-9.97918
▁asıl	-9.97939
▁döner	-9.98077
▁açıklamada	-9.9812
▁renkli	-9.98206
▁faktörler	-9.98209
▁özeti	-9.98256
▁idari	-9.98274
▁mesaj	-9.98294
▁kişiyi	-9.98304
▁lisans	-9.98337
ının	-9.98347
▁açar	-9.98433
▁yapılmış	-9.98548
po	-9.98563
▁kullanılabilir	-9.98576
▁miktar	-9.98619
▁Sadece	-9.98641
İ	-9.98642
▁Kar	-9.98703
nize	-9.98704
▁olduklarını	-9.98705
▁devre	-9.98711
▁futbolcu	-9.98724
▁kullanır	-9.98826
▁der	-9.98841
▁karısı	-9.98897
▁büyüme	-9.98968
ğ	-9.98977
▁öyle	-9.99069
wa	-9.99215
▁tipi	-9.9922
▁yapmayı	-9.99239
▁içeriği	-9.99256
▁eş	-9.99301
▁Ver	-9.9931
▁Uzun	-9.99313
sun	-9.9932
▁tehlikeli	-9.9937
▁iklim	-9.99409
▁Azerbaycan	-9.99434
▁getirmek	-9.99456
▁merak	-9.99509
▁olmayı	-9.99522
▁ismi	-9.99594
ad	-9.99628
▁evine	-9.99695
▁alması	-9.99736
▁doğruysa	-9.99743
▁alındı	-9.99783
▁doğu	-9.99787
▁kaba	-9.99869
9	-9.99901
▁rolü	-9.99928
▁vergi	-9.99939
çı	-10.0002
▁onlar	-10.0004
sında	-10.0007
iyor	-10.001
▁Köyün	-10.0011
▁2018	-10.0012
▁eyaletinde	-10.0014
▁yapmış	-10.0022
▁Olası	-10.0035
▁Ni	-10.0038
▁muhteşem	-10.0041
▁yaşadı	-10.0042
▁->	-10.0043
▁çalışması	-10.0047
▁Mo	-10.0052
▁Chris	-10.0053
El	-10.0069
▁birine	-10.0073
▁gitmek	-10.0081
▁kurumu	-10.0089
▁üretim	-10.0097
▁milyar	-10.0101
▁ettim	-10.0101
▁On	-10.0102
ho	-10.0103
▁işareti	-10.0107
▁kararı	-10.0109
▁merkez	-10.0116
▁Kullanıcı	-10.0116
▁egzersiz	-10.0118
▁düz	-10.0119
▁Festivali	-10.0119
▁yaşıyor	-10.0127
▁türleri	-10.0143
▁açan	-10.0149
▁Be	-10.0149
▁dönüş	-10.0153
je	-10.0156
▁oldukları	-10.0163
hi	-10.0165
▁herkesin	-10.0166
▁kelimelerin	-10.0168
▁geldiği	-10.0173
▁Ev	-10.0176
▁İ	-10.0181
▁sizin	-10.0195
▁tanır	-10.0196
diği	-10.0197
ah	-10.0216
▁III	-10.0217
▁faaliyet	-10.022
▁bakın	-10.0225
▁anlaşma	-10.0232
iye	-10.024
▁Sarah	-10.0241
▁Açık	-10.0243
▁çekti	-10.0244
ey	-10.0246
▁Başka	-10.0255
Bunu	-10.027
▁Bölge	-10.0274
▁görüş	-10.0275
▁sinir	-10.0275
▁çalıştığı	-10.0277
▁sonlarında	-10.0278
▁birden	-10.0282
▁yerinde	-10.0282
▁sivil	-10.0283
▁Brown	-10.0285
▁içeriyor	-10.0291
▁ton	-10.0292
▁büyüleyici	-10.0294
▁oda	-10.0301
▁yükseldi	-10.0306
▁bebek	-10.0313
▁boşluk	-10.0317
▁içi	-10.0322
▁Araştırma	-10.0323
▁özgü	-10.0326
▁İsveç	-10.033
ül	-10.0341
▁kilo	-10.0344
▁cevaplar	-10.0345
▁sağlayın	-10.0351
▁dilbilgisi	-10.0352
▁Olimpiyat	-10.0358
▁Peki	-10.0366
▁sorular	-10.0371
▁Soruyu	-10.0375
▁West	-10.0377
▁kapalı	-10.0383
▁bağlantılı	-10.0386
▁sağlam	-10.0397
▁üretilen	-10.0414
lanmış	-10.042
▁To	-10.0429
ova	-10.043
▁basketbol	-10.0433
▁çeyrekte	-10.0434
lrb	-10.0439
rrb	-10.0453
-19	-10.0453
=	-10.0455
▁yönetmeni	-10.0456
▁göç	-10.0457
▁kırıklığı	-10.0458
▁Rusça	-10.0468
▁mahalle	-10.0475
▁Çekçe	-10.0478
▁Bo	-10.0483
▁ayrıntılar	-10.049
▁merkezli	-10.0502
▁lig	-10.0509
ot	-10.051
▁Ordusu	-10.0511
▁konumu	-10.0514
ydu	-10.0517
▁PersonX	-10.0521
▁olabileceği	-10.0528
lardır	-10.0529
▁çoktan	-10.0534
▁esas	-10.0536
▁1928	-10.0536
▁yürütme	-10.0543
▁müdahale	-10.0547
▁pasaj	-10.0547
▁ayrıldı	-10.0548
▁giyen	-10.0548
▁ürünün	-10.055
izm	-10.0551
▁düşünelim	-10.0557
▁matematik	-10.0558
▁mahalledir	-10.056
▁duygusunu	-10.0564
▁dalga	-10.0569
▁200	-10.0574
▁yarım	-10.0583
▁Adası	-10.0585
▁verilmiştir	-10.0589
▁İş	-10.0591
▁kimin	-10.0597
▁unsurları	-10.0597
▁1980'	-10.0598
▁Chicago	-10.0599
▁ifadesini	-10.0602
▁tutmak	-10.0607
▁süresi	-10.0609
▁Du	-10.0612
▁tarım	-10.0614
▁Cümleyi	-10.0615
▁geçmektedir	-10.0617
ına	-10.0621
▁yetenekli	-10.0624
▁aldım	-10.0625
▁zorlu	-10.0628
▁Cuma	-10.0631
▁Lo	-10.0635
▁Öncelikle	-10.0635
▁kulüp	-10.064
▁10.	-10.0645
▁kullanıcının	-10.0648
köy	-10.0653
▁Tanrı	-10.0653
▁aralarında	-10.0654
▁bisiklet	-10.0655
▁Doğum	-10.0656
▁terim	-10.0674
mizi	-10.0675
▁noktalama	-10.0675
▁Teksas	-10.0681
▁ağaç	-10.0682
so	-10.0682
▁Çoğu	-10.0686
▁Kişi	-10.0687
▁tren	-10.0688
▁ediyordu	-10.0689
▁ölü	-10.0692
▁Vi	-10.0698
▁açıklaması	-10.07
mızı	-10.0705
▁yazı	-10.0708
▁maçında	-10.071
diğini	-10.0728
▁Müzesi	-10.0729
▁dönemi	-10.0731
▁Cevabı	-10.0743
▁başardı	-10.0752
▁yüzyıl	-10.0756
▁sorusuna	-10.0757
▁önem	-10.0765
00	-10.0767
kları	-10.0767
▁32	-10.0771
▁_	-10.0771
▁İzmir	-10.0777
▁Suriye	-10.0785
▁park	-10.079
▁neydi	-10.0792
▁2011'	-10.0793
▁yapısını	-10.0794
am	-10.0814
▁Ca	-10.0818
▁istiyorum	-10.082
▁işlem	-10.0823
▁ifadenin	-10.0823
les	-10.0825
▁plak	-10.0828
▁toz	-10.0831
ker	-10.0833
▁görülüyor	-10.0835
▁iken	-10.0838
▁Katolik	-10.0848
Her	-10.0851
▁ulaşmak	-10.0853
▁fikri	-10.0854
Ç	-10.0855
▁versiyonu	-10.087
▁olursa	-10.0871
▁oluşturan	-10.0873
dy	-10.0873
▁Dan	-10.0875
▁ürünleri	-10.0877
▁Eleştirmen	-10.0879
▁Ko	-10.088
▁aşk	-10.0884
▁Profesyonel	-10.0887
▁Di	-10.0889
▁topu	-10.0894
▁merkezinde	-10.0898
▁insanlara	-10.09
▁Akademisi	-10.0904
▁Jackson	-10.0905
▁iyice	-10.0909
▁numaralı	-10.0913
san	-10.0917
▁takımının	-10.0925
▁Kan	-10.0927
▁aşık	-10.0928
▁şirketin	-10.0936
▁ifadeleri	-10.0938
ür	-10.0939
▁Windows	-10.0949
▁geçer	-10.0955
▁Genç	-10.0959
▁belki	-10.096
▁çıkarabilir	-10.0964
▁bulunabilir	-10.0966
▁Bill	-10.0969
–	-10.0971
▁kalabalık	-10.0973
▁gitar	-10.0974
iyle	-10.0976
▁Bob	-10.0982
▁1990'	-10.099
▁yarış	-10.0993
ebilir	-10.0996
▁standart	-10.0997
▁geliştirme	-10.0998
▁tamamı	-10.1004
▁Özellikle	-10.1004
▁kolayca	-10.1005
▁kısmını	-10.1008
▁gerektirir	-10.1008
ian	-10.1014
▁veriler	-10.1015
▁gibidir	-10.1021
▁benzeri	-10.1026
ren	-10.1032
▁kedi	-10.1034
▁2008'	-10.1038
▁saldırı	-10.1039
▁süper	-10.1039
▁varmak	-10.1043
▁Konseyi	-10.1051
▁bulunduğunu	-10.1052
▁ondan	-10.1053
▁Po	-10.1058
lerdir	-10.1058
▁program	-10.1061
▁bakım	-10.1061
▁20.	-10.107
▁olayı	-10.1072
▁2009'	-10.1073
ham	-10.1075
▁varlık	-10.1084
▁imza	-10.1088
▁diş	-10.1088
▁(18	-10.1089
▁tatil	-10.1092
▁Genellikle	-10.1095
▁satış	-10.1107
▁öğrenme	-10.1112
▁öncesi	-10.1119
▁Günü	-10.1122
▁Brezilya	-10.1125
▁makam	-10.1136
▁açıkladı	-10.1139
dim	-10.1141
▁olurdu	-10.1143
▁petrol	-10.1155
Le	-10.116
▁kağıt	-10.1161
▁Kurulu	-10.1161
▁ayak	-10.1167
▁akıllı	-10.1168
▁civarında	-10.1172
▁kaybetti	-10.1177
▁kurulmuş	-10.1177
▁çıkış	-10.1177
▁saç	-10.1179
off	-10.118
▁35	-10.1181
▁planı	-10.1192
▁ziyade	-10.1195
sh	-10.1196
▁alanları	-10.12
▁Can	-10.1202
▁toplum	-10.1205
▁çalışmak	-10.1206
▁MÖ	-10.1207
▁belirtilen	-10.1207
▁zamanlarda	-10.1208
▁harfle	-10.1209
▁Alan	-10.1212
▁yapılmıştır	-10.1217
▁Lisesi	-10.1219
▁ilişkileri	-10.122
▁Sağlanan	-10.1222
▁yazılmış	-10.1226
▁Tarih	-10.123
▁sizi	-10.1232
▁Arap	-10.1234
▁uyumlu	-10.1236
▁bağlıdır	-10.1237
▁2007'	-10.1237
▁Jim	-10.1246
▁Yaşamı	-10.1246
miştir	-10.1251
▁kullanım	-10.126
▁nelerdir	-10.1271
▁noktaları	-10.1275
▁Kraliyet	-10.1277
liğin	-10.1278
▁lider	-10.1281
▁ilişkiyi	-10.1292
▁kurucu	-10.1292
▁gerçekleşti	-10.1296
▁Ukrayna	-10.1297
▁nokta	-10.1298
mektedir	-10.13
▁komik	-10.1303
ku	-10.1308
▁#	-10.1309
▁ekibi	-10.1312
▁ayrılır	-10.1319
▁sunan	-10.132
muş	-10.132
▁konuda	-10.1322
▁Records	-10.1328
▁dostum	-10.1328
▁İsviçre	-10.1328
▁fiil	-10.1332
▁yaşındayken	-10.1341
ıp	-10.1342
ysa	-10.1343
▁Tur	-10.1349
▁uçak	-10.1351
▁belirtti	-10.1354
▁ağ	-10.1358
▁yaşamı	-10.1375
▁Sovyetler	-10.1375
▁Or	-10.138
▁Ertesi	-10.1381
▁fayda	-10.1381
▁Sosyal	-10.1383
mar	-10.1384
▁tur	-10.1386
▁sipariş	-10.1388
sayımına	-10.1396
▁performansı	-10.1397
▁dijital	-10.1403
▁biliyor	-10.1406
▁kaynakları	-10.1407
▁katılan	-10.1412
▁Lu	-10.1414
▁yapılır	-10.1419
▁kaya	-10.1419
▁sordu	-10.1427
▁Çeviri	-10.1427
▁1999	-10.1436
▁kasaba	-10.1439
▁duyduğu	-10.144
▁oyunculuk	-10.1443
▁HABER	-10.1449
▁yıldır	-10.1449
▁Florida	-10.1452
▁2017'	-10.1455
▁Onu	-10.1468
▁siyasetçi	-10.147
▁acil	-10.1472
▁Sorun	-10.1473
▁karşılığında	-10.1473
▁ili	-10.1473
fi	-10.1475
▁eşlik	-10.1478
▁2019	-10.148
▁kurulmuştur	-10.1482
▁güvenilir	-10.1483
▁bölümünde	-10.1484
ty	-10.1484
örneğin	-10.1484
▁parçalara	-10.1486
▁yeteneği	-10.1486
▁tatmin	-10.1489
▁federal	-10.1494
▁Pe	-10.1494
▁etkiler	-10.1494
▁2014'	-10.1494
▁taşındı	-10.1501
▁asker	-10.1503
▁pratik	-10.1504
▁yeterince	-10.1505
▁Red	-10.1506
▁45	-10.1509
▁değişiklikler	-10.1512
ez	-10.1515
▁içerebilir	-10.1516
▁başlamıştır	-10.1518
▁parçasıdır	-10.1529
▁dışarıda	-10.1535
▁Berlin	-10.1535
▁Müslüman	-10.1536
▁sahipti	-10.1541
▁değerlendirme	-10.1542
ında	-10.1543
▁yapılması	-10.1544
▁not	-10.1547
▁ilgisi	-10.1549
▁kişiye	-10.1551
▁galaksidir	-10.1552
▁yanlıştır	-10.1558
▁almayı	-10.1561
▁karanlık	-10.1566
Ma	-10.157
▁sürede	-10.1571
çe	-10.1572
▁eseri	-10.1577
▁rolünü	-10.1578
▁aittir	-10.1579
▁Fa	-10.1589
▁evlendi	-10.1601
▁Jones	-10.1608
▁belirtmek	-10.1609
▁hakkı	-10.161
▁Ç	-10.1611
pe	-10.1616
▁kıyasla	-10.1616
▁gerçeği	-10.1622
▁yönettiği	-10.1631
▁şeye	-10.1638
▁lezzetli	-10.1639
▁Yarışması	-10.1645
▁önceden	-10.1645
▁kayıp	-10.1647
▁2013'	-10.1649
▁öğrenmek	-10.1655
▁Birçok	-10.1675
▁işgal	-10.1678
▁Ke	-10.168
▁sakin	-10.1682
can	-10.1684
▁ücretsiz	-10.1685
▁Bana	-10.1689
▁tanınır	-10.1693
▁yüzey	-10.1696
▁ayrıntıları	-10.1698
▁taşıma	-10.1701
▁şiddetli	-10.1704
▁İnsan	-10.1706
▁düştü	-10.1708
▁p	-10.1713
▁pozisyonunda	-10.1713
▁takımında	-10.1715
▁Ra	-10.1716
▁geçiyor	-10.1718
yor	-10.172
▁yapmaktadır	-10.1721
▁ruh	-10.1723
▁çıkarır	-10.1729
▁öğrencisi	-10.1729
▁yönetmen	-10.1729
▁kap	-10.1739
mu	-10.174
▁etmesini	-10.1743
▁kadınlar	-10.1746
▁atış	-10.1749
▁çaba	-10.1754
▁olmasa	-10.1759
10	-10.1763
▁kültür	-10.1778
▁kullandığı	-10.1779
▁mantıksal	-10.1784
▁Adaları	-10.1785
▁başlangıç	-10.1789
▁Para	-10.1789
▁Pek	-10.179
▁giydi	-10.1797
Daha	-10.18
▁1993	-10.1805
▁Yazar	-10.1809
▁becerilerini	-10.1814
maya	-10.1815
▁hayvanlar	-10.1816
▁hizmetleri	-10.1817
▁Derneği	-10.1818
▁aldığını	-10.1818
▁gözden	-10.182
▁Obama	-10.1829
▁hızı	-10.1835
▁yazık	-10.1841
▁geride	-10.1842
▁kg	-10.185
▁Anadolu	-10.1851
▁beyin	-10.1851
fa	-10.1853
▁dağ	-10.1858
▁dokuz	-10.1862
▁sonuna	-10.1863
▁geldiğinde	-10.1866
▁kullanılması	-10.1867
▁öğretmen	-10.1878
▁Kadınlar	-10.1885
unun	-10.1887
▁yatak	-10.1892
▁Hikaye	-10.1893
var	-10.1893
don	-10.1903
ben	-10.1908
▁arkasında	-10.1909
▁kullanma	-10.1909
▁Ba	-10.1912
▁beraber	-10.1913
▁üretimi	-10.1915
▁içeriğini	-10.1921
▁kulübü	-10.1928
up	-10.1929
▁Nick	-10.1931
▁bağlamında	-10.1933
▁Louis	-10.1933
Re	-10.1935
▁Söz	-10.1939
▁Arka	-10.1941
▁Hukuk	-10.1946
▁Grubu	-10.1959
▁kullanılarak	-10.1968
▁Sultan	-10.197
▁King	-10.197
▁nefret	-10.1972
▁mü	-10.1973
▁Pazartesi	-10.1974
Doğru	-10.1974
▁ilçesinde	-10.1977
maktadır	-10.1983
▁kalın	-10.199
▁sınırları	-10.1993
▁alıntı	-10.1993
inden	-10.1994
sk	-10.1995
▁şeyleri	-10.1995
▁edilmektedir	-10.2
▁karakteri	-10.2004
▁adlandırılan	-10.2006
▁gönderme	-10.2007
dü	-10.2009
▁2015'	-10.2011
▁milletvekili	-10.2011
landı	-10.2012
▁tartışma	-10.2012
▁dikkatli	-10.2013
▁mal	-10.2014
▁Eurovision	-10.2015
hayır	-10.2017
▁tarihsel	-10.2019
▁açıklayan	-10.202
▁negatif	-10.2026
ay	-10.2035
▁Arapça	-10.2046
▁biriydi	-10.2048
▁kitabın	-10.205
▁kökenli	-10.2058
▁kelimenin	-10.206
ny	-10.2064
▁ölümünden	-10.2066
ron	-10.2069
▁kullandı	-10.2069
▁parçaları	-10.2074
+	-10.2079
▁kırıklığına	-10.2083
▁Har	-10.2084
▁yardımcısı	-10.2084
▁itibarı	-10.209
▁Adı	-10.2091
▁Baba	-10.2094
▁edelim	-10.2094
▁1970'	-10.2097
▁zihinsel	-10.2099
▁tasarlanmış	-10.2101
▁insanı	-10.2108
▁FC	-10.211
▁2021	-10.2111
▁etmesine	-10.2114
▁modeli	-10.2127
dar	-10.2131
mıştı	-10.2131
fer	-10.2133
▁içki	-10.2133
▁2010'	-10.214
▁al	-10.2142
▁bilgiye	-10.2144
▁avcısı	-10.2145
▁gelişmiş	-10.2148
▁Çağ	-10.2153
▁atandı	-10.2159
gar	-10.216
▁aksi	-10.2161
▁yazılan	-10.2164
sunuz	-10.2164
▁yaşanan	-10.217
▁Demokrat	-10.2171
▁Çek	-10.2174
▁döndürür	-10.2174
▁Do	-10.2175
▁taze	-10.218
▁kategori	-10.2187
▁ekip	-10.2189
▁etkileyici	-10.2191
▁Tony	-10.2195
▁amaçlı	-10.2195
▁Süper	-10.2199
▁köyü	-10.2205
▁yardalık	-10.2207
▁Bilgi	-10.2209
▁Öğrenci	-10.221
▁anlatan	-10.2212
Ş	-10.2215
nizin	-10.2219
▁sağlığı	-10.2227
▁Kulüp	-10.2229
Yeni	-10.2231
▁Moskova	-10.2232
▁seçimleri	-10.2232
▁gidiyor	-10.2234
▁geçirmek	-10.2234
▁şiddet	-10.2244
▁mutfak	-10.2245
▁cümleye	-10.2248
▁yönündeki	-10.2251
▁mutlaka	-10.2253
▁sözü	-10.2255
▁kritik	-10.2264
▁Ro	-10.2266
▁Mac	-10.2267
▁United	-10.2269
▁gösteri	-10.2273
▁Yerel	-10.2274
▁malzemeleri	-10.2276
▁ayı	-10.2277
▁yazılım	-10.2284
▁Harry	-10.2284
▁av	-10.229
а	-10.2292
▁bölgesel	-10.2294
▁2016'	-10.2295
▁Salı	-10.2296
▁taşımaktadır	-10.2297
▁Oyuncu	-10.2307
▁çalışın	-10.2308
▁sesi	-10.231
▁tarafında	-10.2311
Q	-10.2311
▁Johnson	-10.2317
▁artış	-10.2319
▁etnik	-10.232
▁düşünce	-10.2321
▁gümüş	-10.2322
▁yerli	-10.2324
▁geliştirmek	-10.2325
▁istediğini	-10.2326
▁AB	-10.2328
▁ettiler	-10.233
▁Taylor	-10.233
▁olaylar	-10.2332
▁bilgisi	-10.2333
▁Scott	-10.2333
▁özelliği	-10.2341
▁şudur	-10.2341
▁Çocuk	-10.2342
▁ilgisini	-10.2347
▁aktör	-10.2348
▁ucuz	-10.2357
▁duyurdu	-10.2357
▁yarattı	-10.237
▁alınması	-10.2374
▁1995	-10.2375
▁Japonca	-10.2375
▁hissiyatı	-10.2375
shi	-10.2376
▁Sonuçlar	-10.2376
▁İçin	-10.2378
▁Milletler	-10.238
▁çoğunu	-10.2381
▁ilişkiler	-10.2382
by	-10.2385
▁baba	-10.2386
▁%	-10.2388
▁bilgilerin	-10.2389
▁dolarlık	-10.2391
▁gören	-10.24
▁türlü	-10.2401
▁İskoçya	-10.2404
ıyor	-10.2412
▁seçeneklerden	-10.2412
▁kopya	-10.2414
▁boyu	-10.242
▁rekabet	-10.2422
▁1994	-10.2423
▁odak	-10.2424
▁sisteminin	-10.2432
layan	-10.2439
▁sevdiği	-10.2441
▁Matt	-10.2447
▁Özet	-10.2452
▁CD	-10.2454
▁Mi	-10.2454
▁Jan	-10.2455
▁kalıyor	-10.2459
▁pazar	-10.2465
▁Hall	-10.2466
▁ideal	-10.2468
▁bölgenin	-10.2477
▁Jane	-10.2484
▁evcil	-10.2485
▁proje	-10.2492
▁pahalı	-10.2494
▁Steve	-10.2495
▁elektronik	-10.25
▁görevini	-10.2505
▁Şirket	-10.2514
▁Temel	-10.2516
▁Muharebesi	-10.2517
▁duyguları	-10.2518
▁kıyı	-10.2519
▁takımyıldızı	-10.252
▁kilise	-10.252
▁ad	-10.252
ard	-10.2525
▁Don	-10.2529
▁ediyorum	-10.2535
▁vakit	-10.2538
▁çevirisi	-10.2539
▁ailenin	-10.2542
▁tahta	-10.2545
yum	-10.2548
▁ışığı	-10.2549
▁Williams	-10.2551
▁1990	-10.2556
▁hediye	-10.256
▁türüdür	-10.2562
▁inanıyor	-10.2566
▁Aile	-10.2568
gu	-10.2569
▁kavga	-10.2574
▁internet	-10.2577
▁oynanan	-10.2581
▁tasarım	-10.2583
siyle	-10.2597
▁1998	-10.2599
▁gramer	-10.2603
▁inşaat	-10.2603
▁eksikliği	-10.2605
▁doktor	-10.2619
▁teşekkür	-10.2619
▁ters	-10.2621
▁mevcuttur	-10.2621
▁karakterleri	-10.2626
▁uçuş	-10.263
▁olasılığı	-10.263
▁boya	-10.2634
▁vermiyor	-10.2638
▁hakları	-10.2639
▁tarafı	-10.264
▁Kullanım	-10.2644
hu	-10.2645
▁coğrafi	-10.2649
▁hayati	-10.2656
▁tanışır	-10.2657
▁soruları	-10.2662
▁Nüfus	-10.2663
▁Anahtar	-10.2664
▁sıradan	-10.2667
jo	-10.2678
е	-10.2679
ville	-10.2679
▁seçimi	-10.2683
▁Black	-10.2684
▁akademik	-10.2684
▁11.	-10.2686
sinden	-10.2687
▁Oyun	-10.2688
▁keskin	-10.2689
▁yanına	-10.269
▁gerektiren	-10.2691
▁Olumlu	-10.2693
▁görülen	-10.2696
▁dikkatlice	-10.2698
▁örneğin	-10.2699
▁Da	-10.27
per	-10.2707
sınız	-10.2708
ret	-10.2714
John	-10.2723
▁sağlayacak	-10.2726
▁geçirdiği	-10.273
▁kontrolü	-10.273
▁Ja	-10.2733
▁denge	-10.2733
▁bireyin	-10.2739
▁gerekirse	-10.2739
▁Saray	-10.2741
▁topluluk	-10.2746
lığını	-10.2748
▁1960'	-10.2755
▁j	-10.2758
▁hız	-10.2758
ll	-10.2764
▁bol	-10.2765
▁görünen	-10.2775
▁Güvenlik	-10.2776
▁olmalı	-10.2777
▁pop	-10.2788
▁oluşturulan	-10.2793
▁halkı	-10.2795
▁malzeme	-10.2799
▁Rock	-10.2801
yen	-10.2804
▁Babası	-10.2808
▁Kıbrıs	-10.2811
▁Ri	-10.2811
let	-10.2813
tra	-10.2816
▁Per	-10.2816
▁nüfusunun	-10.2816
▁Millî	-10.2819
▁sayıları	-10.282
▁gerilim	-10.2828
▁işlemi	-10.283
▁öğrenir	-10.283
▁keşfeder	-10.2834
▁edildiği	-10.2837
▁kazanmıştır	-10.2838
▁gelebilir	-10.2839
▁gizemli	-10.2839
▁Zaman	-10.2842
▁etkisini	-10.2848
▁kaynaklanan	-10.2853
▁ceza	-10.2856
▁Yaklaşık	-10.2856
▁1996	-10.2861
▁sigara	-10.2862
▁itiraf	-10.2862
▁Saint	-10.2864
▁etkileri	-10.2865
▁He	-10.2868
▁başkanlık	-10.2871
▁Başkanlığı	-10.2873
▁Jo	-10.2878
▁kırsal	-10.2897
▁duruma	-10.2904
▁oluşturma	-10.291
▁çeken	-10.2913
▁yetişkin	-10.2916
▁konuşulan	-10.2918
▁bulma	-10.2919
▁ölümüne	-10.2919
yim	-10.2922
▁cam	-10.2922
▁Sorunun	-10.2923
▁düzgün	-10.2923
▁Önceki	-10.2924
▁Sir	-10.2925
▁ada	-10.2926
▁Görev	-10.2927
lenen	-10.293
▁aksine	-10.2933
▁Tim	-10.2937
▁günümüzde	-10.2942
▁tanık	-10.2943
▁içeri	-10.2943
▁ilaç	-10.2944
▁Con	-10.2944
▁kapsamında	-10.2951
▁kaydetti	-10.2952
▁ederim	-10.2952
▁As	-10.2953
▁Güzel	-10.2959
▁von	-10.2963
▁Üçüncü	-10.2969
▁bırakın	-10.2976
▁birincil	-10.2986
-1	-10.299
klarını	-10.2991
▁karıştırın	-10.2993
▁duruyor	-10.2994
▁erkekler	-10.3
▁kimse	-10.3008
▁Joseph	-10.301
▁tanımlamak	-10.3012
▁lise	-10.3013
chi	-10.3018
▁seks	-10.3024
▁üçlü	-10.3029
▁rüzgar	-10.3029
kin	-10.3029
laştırıldığında	-10.3032
▁Oyunları	-10.3032
▁Sol	-10.3034
▁erişim	-10.3036
▁kişiden	-10.3038
▁2018'	-10.3053
▁görüldü	-10.306
▁Farsça	-10.3061
Ha	-10.3063
▁zararlı	-10.3064
▁şehirdir	-10.3065
una	-10.3069
▁kelimeyi	-10.3069
▁Ölümü	-10.307
▁görüntü	-10.3081
tü	-10.3081
▁Kendi	-10.3084
che	-10.3086
▁Portekiz	-10.3086
▁hizmeti	-10.3091
▁deyin	-10.3094
▁iptal	-10.31
ts	-10.3103
▁genetik	-10.3103
▁adımını	-10.3105
▁Danimarka	-10.3107
▁taşıyor	-10.3108
if	-10.3115
lanır	-10.3117
▁suya	-10.3118
▁Bi	-10.3118
▁diline	-10.3125
▁içerik	-10.3131
evet	-10.3137
▁1992	-10.3138
▁Grand	-10.314
▁demir	-10.3143
▁konser	-10.3143
▁sessiz	-10.3148
▁Max	-10.3152
▁dava	-10.3154
mon	-10.3158
res	-10.3161
▁edebilirsiniz	-10.3163
▁tıpkı	-10.3166
▁yanıtlamak	-10.3166
▁koyuyor	-10.3172
▁uyku	-10.3181
ana	-10.3181
ser	-10.3181
he	-10.3181
▁Ordu	-10.3183
▁geçmişi	-10.3184
▁ifadeler	-10.3188
▁cep	-10.3188
▁ederler	-10.319
▁kuzeyinde	-10.319
▁seri	-10.3192
▁Jean	-10.3192
▁motor	-10.3199
▁silahlı	-10.32
asyon	-10.3203
▁yazma	-10.3211
▁elma	-10.3218
▁yılındaki	-10.3231
▁hata	-10.3233
▁koşulları	-10.3234
▁Ryan	-10.3237
▁kuruluş	-10.3237
▁varlığını	-10.3243
▁çözümü	-10.3249
▁Kongre	-10.325
▁grubunun	-10.3251
cevaplanamaz	-10.3251
▁Bazen	-10.3256
sak	-10.3257
▁Stadyumu	-10.3257
▁Green	-10.3259
▁incelemeye	-10.3259
Al	-10.3267
▁terimleri	-10.3267
▁kış	-10.3267
Bölüm	-10.3271
▁kurmak	-10.3271
▁okula	-10.3273
▁olayın	-10.3274
▁Albüm	-10.328
▁etmiş	-10.3281
▁Metinde	-10.3284
▁yolunu	-10.3285
▁Kız	-10.3293
▁f	-10.3296
▁1'	-10.3297
▁etkinlik	-10.3298
▁Gölü	-10.3303
lenmiş	-10.3308
tor	-10.3315
▁2020'	-10.3316
▁kaliteli	-10.3318
▁Eyalet	-10.3321
▁öğrencilerin	-10.3322
▁Donald	-10.3325
▁Ray	-10.3325
▁seçimlerinde	-10.3328
▁evli	-10.333
net	-10.3333
em	-10.3339
▁barış	-10.3342
▁fazlasını	-10.3349
▁görüyor	-10.3351
sch	-10.3354
▁Başlangıçta	-10.3355
▁reklam	-10.3358
▁Ho	-10.3359
▁çıkma	-10.3361
▁romantik	-10.3363
▁cilt	-10.3366
▁Hi	-10.337
küçük	-10.3375
▁antik	-10.3377
▁yolculuk	-10.3378
▁korkunç	-10.3382
▁güven	-10.3382
▁meydan	-10.3387
▁vermektedir	-10.3388
▁haklı	-10.3391
inci	-10.3393
▁Çünkü	-10.3393
▁inanılmaz	-10.3407
▁otomatik	-10.3409
▁Eyaleti	-10.341
▁istediği	-10.3416
▁mağlup	-10.3417
▁nihai	-10.3419
▁eylemleri	-10.3422
▁eatType	-10.3425
▁tanınmış	-10.3433
▁dünyada	-10.3434
▁SEÇENEKLER	-10.3437
▁müzisyen	-10.3438
▁keyifli	-10.344
▁getiren	-10.3446
▁hasar	-10.3448
▁Yine	-10.3451
▁önemi	-10.3453
▁sürecini	-10.3453
▁şekildedir	-10.3456
bar	-10.3456
▁80	-10.3457
30	-10.3463
▁Elizabeth	-10.3464
▁takma	-10.3465
▁sunar	-10.3468
▁saniye	-10.347
▁adayı	-10.3472
▁rengi	-10.3472
▁vererek	-10.3474
▁do	-10.3475
▁garanti	-10.3476
▁kamera	-10.3479
▁diğerleri	-10.348
▁galibiyet	-10.3481
▁kadınların	-10.3484
▁zorunlu	-10.3485
▁pasajı	-10.3486
▁kızın	-10.3486
▁Yu	-10.3499
▁demiryolu	-10.35
▁öğretim	-10.3503
▁Aslında	-10.3518
▁Sonra	-10.3519
ama	-10.352
▁çekiyor	-10.3526
▁ekledi	-10.3527
▁çiçek	-10.3531
▁imzaladı	-10.3534
▁Komitesi	-10.3534
▁1997	-10.3536
Öncül	-10.3536
▁plastik	-10.3537
▁oluştuğu	-10.3537
▁hükümeti	-10.3537
▁Şunlar	-10.3541
▁kullanıldı	-10.3548
▁oyunun	-10.3548
▁fikrini	-10.3549
▁şehirde	-10.355
▁bahsedilmiyor	-10.356
▁gücünü	-10.3561
▁takdirde	-10.3563
▁toplama	-10.3572
▁16.	-10.3578
▁problem	-10.3595
▁ödülü	-10.3597
▁çıkarma	-10.3598
▁2006'	-10.3601
▁uzanan	-10.3605
sıyla	-10.3607
lıdır	-10.3607
of	-10.3608
▁bilmek	-10.3612
▁verebilir	-10.3612
▁ahşap	-10.3613
▁koyu	-10.3616
kullanılmaktadır	-10.3618
▁UEFA	-10.3619
▁tıp	-10.3632
que	-10.3637
▁fakat	-10.3638
▁güneyinde	-10.3642
▁Edward	-10.3643
▁General	-10.3644
▁Denizi	-10.3646
▁düşünüyorum	-10.3649
▁2022	-10.3652
▁oynamak	-10.3654
sta	-10.3655
▁kardeş	-10.3655
▁konuları	-10.3656
Tamam	-10.3659
▁sanatçısı	-10.3659
lığın	-10.3664
12	-10.3664
▁bırakır	-10.3666
▁Yer	-10.3667
▁Okyanusu	-10.3668
▁Sağlık	-10.3671
ung	-10.3674
▁kulübünde	-10.3675
▁kelimesinin	-10.3675
▁kurulu	-10.3675
ara	-10.3679
▁Dağı	-10.3681
ris	-10.3682
▁hitap	-10.3685
ion	-10.3687
▁yeteneğini	-10.3688
▁reddetti	-10.369
▁Teknik	-10.3699
▁yönlerini	-10.3699
▁amaç	-10.3702
▁2023	-10.3709
▁şampiyonu	-10.371
▁tamamını	-10.3711
▁18.	-10.3713
▁biyolojik	-10.3717
ok	-10.3721
▁golü	-10.3721
20	-10.3722
▁yukarı	-10.3724
▁Dil	-10.3727
▁sağlama	-10.3737
▁göstermek	-10.3739
▁isimleri	-10.3741
▁masa	-10.3748
▁Ah	-10.375
▁Şehrin	-10.3752
▁Car	-10.3753
▁İlgili	-10.3759
ng	-10.377
▁evin	-10.377
▁arazi	-10.3773
▁orman	-10.3775
▁2019'	-10.3787
▁yanıtı	-10.3788
▁sohbet	-10.379
▁FIFA	-10.3791
▁hareketi	-10.3792
▁görülür	-10.3795
▁beşinci	-10.3797
▁dayanan	-10.38
▁kurma	-10.3801
▁unutulmaz	-10.3803
▁güncel	-10.3806
▁1991	-10.3806
▁belirsiz	-10.3807
▁bitirdi	-10.3811
▁göreve	-10.3814
▁mesafe	-10.3815
▁şarap	-10.3816
çok	-10.3819
▁özelliklerini	-10.383
▁Ara	-10.3835
▁nispeten	-10.3835
▁soyadı	-10.3844
ius	-10.3844
lıyor	-10.3846
▁seçilen	-10.3846
▁Erkek	-10.3847
▁değişen	-10.3853
▁Farklı	-10.3853
▁kartı	-10.3857
▁Krallığı	-10.3857
▁piyasa	-10.3858
▁yayımlanan	-10.386
▁birbirlerine	-10.3864
▁Maria	-10.3864
▁öz	-10.3867
▁arayın	-10.3873
▁kare	-10.3874
▁katılmak	-10.3876
▁harekete	-10.3876
ling	-10.3878
▁koşullar	-10.3881
â	-10.3883
zu	-10.3889
▁90	-10.3889
▁çaplı	-10.389
▁etkileyebilir	-10.3891
▁Beş	-10.3893
▁ayırın	-10.3898
▁yakından	-10.3903
▁başladığı	-10.3905
▁yaratmak	-10.3907
▁pas	-10.3908
▁hayvanların	-10.3911
▁şair	-10.3911
▁filmidir	-10.3921
ünü	-10.3925
▁bas	-10.3925
▁Belki	-10.3926
▁ülkeler	-10.3929
▁gelmektedir	-10.3929
▁arasına	-10.3936
▁kısmen	-10.3939
▁2'	-10.3941
▁olayları	-10.3942
ant	-10.3942
▁finalde	-10.3943
▁özet	-10.3944
▁cinsiyet	-10.3945
sından	-10.3948
▁eleştiri	-10.3954
▁yararlı	-10.3955
▁gelecekteki	-10.3956
▁sağlayabilir	-10.3958
▁ölümü	-10.3958
▁500	-10.396
▁Sun	-10.3967
Sa	-10.3967
▁hastalığı	-10.3972
kleri	-10.3972
vo	-10.3973
▁canlandırdığı	-10.3973
▁keşfedilmiştir	-10.3974
▁rapor	-10.3977
▁görünüyordu	-10.3981
▁liderlik	-10.3982
▁Gürcistan	-10.3989
▁kas	-10.3991
▁gazete	-10.3992
Ö	-10.3996
dik	-10.3998
▁öğle	-10.3999
▁Muhammed	-10.3999
▁biliyoruz	-10.3999
▁kullanılmıştır	-10.4003
▁kutu	-10.4004
▁politika	-10.4006
ney	-10.4007
▁sonsuz	-10.4007
▁müzikal	-10.4011
yo	-10.4012
▁buldum	-10.4014
▁almış	-10.4017
▁36	-10.4018
suz	-10.4021
▁gelip	-10.4021
▁Manchester	-10.4021
▁bağlamını	-10.4023
▁gelecekte	-10.4025
▁açıktır	-10.4026
▁beslenme	-10.4026
▁hiçbiri	-10.4031
▁avukat	-10.4032
▁yılının	-10.4032
▁anlatır	-10.4038
Na	-10.4039
▁şansı	-10.4051
daha	-10.4053
▁basınç	-10.4061
▁verilecektir	-10.4061
▁beyzbol	-10.4067
▁Federasyonu	-10.4077
▁köpeğin	-10.4079
▁mimari	-10.4085
▁aksiyon	-10.4087
▁Chi	-10.4089
▁dik	-10.4091
▁ağırlıklı	-10.4097
▁kalitesi	-10.4099
▁Kendisi	-10.41
▁bizi	-10.4102
▁dönen	-10.4102
▁doğası	-10.4104
▁olmayabilir	-10.4107
▁Anna	-10.4115
▁Latin	-10.4117
cha	-10.4122
▁atan	-10.4122
Son	-10.4123
▁Va	-10.4125
▁bölgeye	-10.4127
▁yerlerde	-10.4129
▁sevgi	-10.413
▁ortağı	-10.4131
Öğretmen	-10.4135
▁yardımıyla	-10.4137
▁diyalog	-10.4138
▁senaryo	-10.4142
▁İl	-10.4147
ks	-10.4147
▁çıkarabiliriz	-10.4147
▁fırsatı	-10.4148
▁ertesi	-10.4148
▁£	-10.4149
ız	-10.415
Ve	-10.415
▁tutun	-10.4155
sü	-10.4156
▁Akdeniz	-10.4157
▁öldürür	-10.4157
▁etmenin	-10.416
▁numaraya	-10.4164
▁işleri	-10.417
▁kalmak	-10.4174
▁Ya	-10.4178
▁yirmi	-10.4179
▁edeceğim	-10.4189
▁yazarın	-10.4191
▁bağlantısı	-10.4194
▁maliyeti	-10.4199
▁kazandığı	-10.4201
14	-10.4204
▁ekstra	-10.4205
▁gazeteci	-10.4209
▁biber	-10.421
▁Belediyesi	-10.4215
▁edebiyat	-10.4219
▁durumun	-10.4221
▁annesinin	-10.4231
▁kurgu	-10.4233
▁kazanmak	-10.4235
▁ilerleme	-10.4236
▁gösterdiği	-10.4241
▁yazılmıştır	-10.4245
▁banka	-10.4245
▁zamanlı	-10.4247
ang	-10.425
din	-10.4251
▁belli	-10.4253
field	-10.4255
▁Belçika	-10.4256
▁yazan	-10.426
▁İsa	-10.4261
▁2024	-10.4262
11	-10.4264
▁Ed	-10.4265
▁tavuk	-10.4265
▁uygulamanın	-10.4267
lanma	-10.4269
▁33	-10.4269
▁izleyin	-10.4278
▁özetleyin	-10.4278
▁azından	-10.4283
▁pro	-10.4283
▁Jason	-10.4283
▁sebep	-10.4295
▁13.	-10.4297
▁otel	-10.4299
▁şişe	-10.4299
▁Si	-10.4302
ktadır	-10.4303
▁bulunmuştur	-10.4307
▁yakıt	-10.431
▁vermesi	-10.4313
Büyük	-10.4314
▁12.	-10.4315
▁karışık	-10.4324
▁cümleden	-10.4326
ic	-10.4334
ford	-10.4338
▁duvar	-10.4342
▁dalında	-10.4342
ban	-10.4343
biriyle	-10.4343
▁formula	-10.4343
▁Yüzölçümü	-10.4351
hangi	-10.4354
▁Bazıları	-10.4355
▁kişidir	-10.436
▁gemi	-10.4364
▁seçmek	-10.4367
▁bağlamdan	-10.4367
▁sürdürdü	-10.4367
▁Za	-10.437
mda	-10.4375
layarak	-10.4377
▁Adalet	-10.4377
▁Yardımcısı	-10.4379
▁Akademi	-10.4384
▁All	-10.4385
▁alakalı	-10.4387
▁Bel	-10.4394
ft	-10.4397
▁olmadığından	-10.4401
▁atmosfer	-10.4401
15	-10.4405
▁Mu	-10.4407
▁önerilen	-10.4409
▁okyanus	-10.4412
▁Star	-10.4414
Su	-10.4414
▁bölün	-10.4416
▁sonuçlar	-10.4417
▁dükkanı	-10.4418
▁yük	-10.4421
▁sorunlar	-10.4423
▁çıktığı	-10.4426
▁bitkiler	-10.4429
▁Ku	-10.4429
▁aktivite	-10.4429
▁yazmaya	-10.4429
▁metne	-10.4429
▁Roman	-10.4431
▁Konusu	-10.4431
▁organik	-10.4431
▁özellikler	-10.4434
▁tweetin	-10.4434
▁Ona	-10.4437
▁gruba	-10.4437
▁zamanında	-10.4437
▁içermektedir	-10.444
▁Dışişleri	-10.4443
De	-10.4447
▁bronz	-10.4452
▁birimi	-10.4455
▁tarafına	-10.4457
▁komşu	-10.4463
▁astronom	-10.4471
▁başa	-10.4473
▁White	-10.4476
▁durumunu	-10.448
▁BBC	-10.448
▁istifa	-10.4485
ig	-10.4486
▁Dört	-10.449
fe	-10.4494
▁kaldığı	-10.4498
▁hapis	-10.45
▁Sal	-10.45
▁Daniel	-10.4503
▁öncülü	-10.4507
▁Çarşamba	-10.4514
luğu	-10.4518
▁organize	-10.4518
▁saf	-10.4523
▁seviyor	-10.4523
▁tarafını	-10.4525
▁üstlendi	-10.4528
▁birisinin	-10.4529
▁Önce	-10.4531
▁kralı	-10.4532
▁ifadesinin	-10.4533
▁söyleyebilir	-10.4536
▁Var	-10.4539
▁istediğiniz	-10.4541
▁Charlie	-10.4545
▁Hill	-10.4549
▁hesap	-10.455
▁70	-10.4551
▁Cumhuriyet	-10.4551
▁seviyorum	-10.4555
▁oyuncular	-10.4557
▁şiir	-10.4562
▁Pakistan	-10.4563
▁hassas	-10.4568
▁Körfezi	-10.4573
▁Mc	-10.4584
▁Belirli	-10.4585
▁Cumhuriyetçi	-10.4587
▁#1	-10.4592
▁soruşturma	-10.4592
▁solunum	-10.4594
▁kararlı	-10.4598
▁Öz	-10.4598
▁müdürü	-10.4602
▁sefer	-10.4602
▁Plan	-10.4605
▁Apple	-10.4606
18	-10.4608
▁İtalyanca	-10.4615
▁oyunları	-10.4615
▁yolcu	-10.462
▁ikili	-10.4621
▁öğrenciler	-10.4622
▁çekildi	-10.4624
▁çevresel	-10.4625
▁yarışı	-10.4626
▁1950'	-10.4628
dım	-10.463
▁biliyorum	-10.4632
▁Orada	-10.4642
▁gerekiyordu	-10.4644
▁opera	-10.4644
▁üreme	-10.4646
▁sana	-10.4647
lanması	-10.4648
▁Brian	-10.4648
▁Savunma	-10.4649
▁düşer	-10.465
ac	-10.4654
▁Cümlede	-10.4656
▁Hollywood	-10.4659
▁kahverengi	-10.4664
▁kriterleri	-10.4667
▁bölgedeki	-10.4668
▁başlayın	-10.4669
▁fiili	-10.4671
▁yara	-10.4673
▁Galler	-10.4674
tz	-10.4675
▁mantığı	-10.4678
▁uzakta	-10.4679
▁dönüşüm	-10.468
zo	-10.468
▁konuşan	-10.4682
▁Dünyanın	-10.4682
tal	-10.4684
▁karakterler	-10.4685
▁kaybı	-10.4685
ici	-10.4688
▁yönetilen	-10.4688
▁kilit	-10.4688
▁Victoria	-10.4689
▁Ta	-10.4689
▁gösterildi	-10.4692
▁belirten	-10.4692
▁Super	-10.4692
▁World	-10.4693
▁alana	-10.4697
▁izleme	-10.4698
▁İfade	-10.4699
▁gurur	-10.4703
ju	-10.4705
▁dosya	-10.4705
▁uygulamayı	-10.4706
▁kalması	-10.4711
▁zinciri	-10.4712
▁listesini	-10.4714
▁Zelanda	-10.4716
▁yıldızı	-10.4716
yse	-10.4718
▁Bölümü	-10.4719
▁Tu	-10.4721
▁artırır	-10.4723
▁farklılık	-10.4723
▁meşgul	-10.4726
▁alkol	-10.4729
▁zamandan	-10.4731
ık	-10.4732
▁inceleyelim	-10.4732
▁Kültür	-10.4732
▁dönüyor	-10.4732
▁liderliğindeki	-10.4734
▁olmaktan	-10.4742
▁Komisyonu	-10.4744
▁olmanın	-10.4747
▁defa	-10.4753
bel	-10.4755
▁karbon	-10.4758
aj	-10.4761
▁solo	-10.4765
▁kıyısında	-10.4766
▁Microsoft	-10.4769
▁Cumartesi	-10.4774
▁sürece	-10.4779
▁Love	-10.4781
▁olmaması	-10.4781
▁işler	-10.4783
▁yaklaşım	-10.4784
▁söyleyen	-10.4786
▁Ter	-10.4792
▁can	-10.4793
▁suçlu	-10.4798
▁düşündü	-10.48
▁hastalık	-10.4802
▁dikkatini	-10.4812
▁etkileyen	-10.4813
▁ettikten	-10.4814
▁Pan	-10.4816
▁ölen	-10.4816
Mi	-10.4817
▁başı	-10.482
▁dışındaki	-10.4821
▁ediyorlar	-10.4827
▁şaka	-10.4827
▁piyano	-10.4828
▁kapı	-10.4833
▁kendilerine	-10.4834
▁bırakmak	-10.4834
▁erdi	-10.4834
HAYIR	-10.4842
▁İşçi	-10.4845
▁hayata	-10.4846
Ar	-10.4846
▁destekleyen	-10.4849
▁kurucusu	-10.4857
▁Finlandiya	-10.4859
hane	-10.4859
▁cümleler	-10.4859
▁kariyer	-10.486
▁ekonomi	-10.486
▁şekil	-10.4861
▁Norveç	-10.4862
▁çöp	-10.4867
eceğini	-10.4869
▁maçına	-10.487
▁Times	-10.4872
▁işçi	-10.4876
▁Ash	-10.4882
sar	-10.4885
▁sal	-10.4885
▁patates	-10.4886
▁1989	-10.4894
▁Girdi	-10.4895
▁yapımcısı	-10.4896
▁saldırgan	-10.4897
▁Francisco	-10.4902
▁Yerli	-10.4908
vin	-10.491
▁rolünde	-10.491
▁hesaplayın	-10.4911
▁Gün	-10.4913
▁17.	-10.4921
▁yargı	-10.4922
▁ayrıntı	-10.4922
▁odaklanıyor	-10.4926
▁geçmeden	-10.4929
▁olacağı	-10.4931
▁dev	-10.4934
▁Pasifik	-10.4937
▁Kralı	-10.4938
▁Federal	-10.494
▁desteklemek	-10.4945
▁milli	-10.495
▁kocası	-10.4955
▁Video	-10.4956
▁ölümcül	-10.4956
leştirilmiş	-10.4957
▁açığ	-10.4958
▁gerekçe	-10.4965
▁söylediği	-10.4969
Avrupa	-10.497
▁kuvvet	-10.497
▁Meclis	-10.4974
sam	-10.4974
▁takımına	-10.4976
▁personel	-10.4976
▁Kitap	-10.4979
▁sadık	-10.4981
▁NBA	-10.4985
ap	-10.4985
▁şeyden	-10.4986
▁koydu	-10.4992
▁Top	-10.4992
▁kullanabilir	-10.4993
▁Eric	-10.4998
▁faydalı	-10.5005
▁keşif	-10.5006
▁kulak	-10.501
▁Mahkemesi	-10.5012
▁zemin	-10.5023
har	-10.5026
▁sanki	-10.5028
▁ordu	-10.5031
▁makine	-10.5035
▁Kulübü	-10.5035
▁kapsayan	-10.5038
▁İşletme	-10.5041
▁tarafta	-10.505
▁Kişisel	-10.5052
▁belirtildiği	-10.5054
▁sergiliyor	-10.5054
▁paragrafı	-10.5054
▁ücret	-10.5054
▁tonu	-10.5055
▁Üstelik	-10.5057
▁Ki	-10.5057
▁beklenmedik	-10.506
▁depolama	-10.5066
▁cümleyle	-10.5075
▁ürünler	-10.5075
▁hükümetin	-10.5077
▁üyesidir	-10.5078
▁kullanmaya	-10.5078
▁otomobil	-10.5079
▁parayı	-10.5082
▁bakan	-10.509
▁My	-10.5092
▁alacak	-10.5093
▁hakim	-10.51
▁moda	-10.5103
lerdeki	-10.5105
▁yönetici	-10.5105
▁çalışmalar	-10.5108
▁ölmüştür	-10.5112
▁yapım	-10.5114
▁şok	-10.5117
we	-10.5125
▁güvenliği	-10.5127
▁görme	-10.513
▁Mars	-10.5131
▁albümün	-10.5146
lidir	-10.5151
▁atarak	-10.5158
▁aylık	-10.5162
eli	-10.5166
▁katıldığı	-10.5168
Önce	-10.5168
▁basın	-10.5169
▁Final	-10.5172
▁özne	-10.5174
▁trafik	-10.5177
▁1960	-10.5177
▁League	-10.5178
▁cevaplamama	-10.5179
1'	-10.5182
▁çalıştığını	-10.5185
▁desteği	-10.5186
rt	-10.5187
▁14.	-10.5189
▁artırmak	-10.5198
▁görünür	-10.5198
▁Virginia	-10.5199
▁yansıtıyor	-10.5202
▁1984	-10.5202
▁toplumsal	-10.5202
▁yetersiz	-10.5205
▁okudu	-10.5205
▁hayatına	-10.5207
Makale	-10.521
▁vadeli	-10.5211
acağını	-10.5211
▁binlerce	-10.5211
▁farkı	-10.5215
▁filminin	-10.5215
▁Lehçe	-10.5219
▁bahçe	-10.5219
▁koruyarak	-10.522
▁yerden	-10.5224
▁izlemek	-10.5224
▁Uygun	-10.5226
▁numarası	-10.5227
▁toplamda	-10.5231
▁Günümüzde	-10.5237
▁toplu	-10.5243
au	-10.5247
▁kart	-10.5247
▁Erzurum	-10.5247
16	-10.5251
▁fazlası	-10.5251
▁geçerek	-10.5257
▁adamları	-10.526
▁dünyasında	-10.5274
▁çekim	-10.5276
▁bulmaya	-10.5277
▁kahraman	-10.528
▁sağlayarak	-10.5283
▁sitesi	-10.5295
▁des	-10.5297
▁gizlice	-10.5297
Li	-10.5298
▁Arthur	-10.5299
▁Üniversite	-10.5301
▁kenarında	-10.5301
▁oraya	-10.5302
▁doğa	-10.5305
tre	-10.5307
film	-10.531
▁Neden	-10.5311
od	-10.5311
▁DVD	-10.532
▁kurtarmak	-10.5322
▁farkında	-10.5323
▁ortamda	-10.5327
▁1).	-10.5327
▁#2	-10.533
▁işleme	-10.5332
▁alanına	-10.5333
▁halkın	-10.5333
▁aktris	-10.5336
▁kaza	-10.5338
▁Ge	-10.5341
▁ağırlık	-10.5341
▁değiştirme	-10.5341
▁se	-10.5347
lenme	-10.5351
▁idam	-10.5356
layın	-10.5357
şi	-10.536
▁College	-10.5364
▁ortamı	-10.5364
▁önceleri	-10.5365
▁sahte	-10.5373
▁karbondioksit	-10.5373
pi	-10.5376
uk	-10.5378
▁gönüllü	-10.5379
gerçekleştirilen	-10.5381
▁Prens	-10.5383
▁Parkı	-10.5383
▁Dönem	-10.5386
▁bölgelerde	-10.5388
▁sağladığı	-10.5388
▁diğeri	-10.5389
▁bireylerin	-10.5391
▁sorusu	-10.5392
▁sistemleri	-10.5396
▁olmasıdır	-10.5398
▁1988	-10.54
▁hayran	-10.5402
▁görevlisi	-10.5403
▁Erkekler	-10.5404
▁mümkündür	-10.5405
▁havada	-10.5406
▁herkese	-10.5406
▁gelmiştir	-10.5408
▁şekli	-10.5408
▁Twitter	-10.5409
▁artmasına	-10.5409
▁sınıfı	-10.5411
berg	-10.5412
Mo	-10.5418
2)	-10.542
▁çekmek	-10.542
▁üstesinden	-10.5421
rak	-10.5425
▁Sırbistan	-10.5427
▁gelişme	-10.5428
▁Analiz	-10.5429
▁Amazon	-10.5429
▁Afganistan	-10.5429
▁hikayesi	-10.5429
▁olduktan	-10.5431
▁enerjisi	-10.5432
▁Sayımı	-10.5434
▁satan	-10.5436
▁yapımcı	-10.5437
▁birbirleriyle	-10.5437
▁giderken	-10.5443
▁2005'	-10.5446
▁Billy	-10.5449
▁Art	-10.5454
▁karışımı	-10.5455
▁tutuyor	-10.5457
▁tutma	-10.5461
▁Hıristiyan	-10.5462
▁yaptıkları	-10.5463
▁dövüş	-10.5463
50	-10.5463
▁derecelendirme	-10.5464
▁parçalar	-10.5466
▁yardımı	-10.5466
▁duygularını	-10.5472
▁önerme	-10.5474
▁fosil	-10.5474
▁açıldı	-10.5482
▁temas	-10.5483
▁evlilik	-10.549
▁şüphe	-10.5493
▁kaydı	-10.55
▁çatışma	-10.5501
▁birisi	-10.5504
▁drama	-10.5506
▁Çeşitli	-10.5508
▁ipucu	-10.5509
sın	-10.5513
▁Ticaret	-10.5516
▁arttı	-10.5519
▁tanıştı	-10.552
▁yangın	-10.552
oz	-10.5522
▁Emily	-10.5526
▁noktada	-10.5526
▁tamamlamak	-10.5527
▁kuvvetleri	-10.5533
▁cümlesinin	-10.5533
▁tutan	-10.5534
▁açıklayın	-10.5545
▁gözlem	-10.5552
Amerika	-10.5555
▁Yol	-10.5557
▁Facebook	-10.556
▁izleyeceğim	-10.5564
▁maksimum	-10.5565
▁Başbakan	-10.5565
▁ısrar	-10.5566
▁şarkının	-10.5567
▁Basketbol	-10.5567
▁bakıldığında	-10.5568
▁uzunluğu	-10.5568
▁Ölüm	-10.5569
▁başkalarına	-10.5572
▁Sen	-10.5576
nızın	-10.5576
н	-10.5578
▁Perşembe	-10.558
Tanım	-10.5581
▁farklıdır	-10.5586
▁Gül	-10.5586
▁tartışıyor	-10.5587
▁önermeye	-10.5587
▁tasarımı	-10.559
▁Yönetim	-10.559
▁şüpheli	-10.559
▁oturuyor	-10.5593
▁etkilenen	-10.5598
▁ardındaki	-10.5598
▁Göz	-10.5599
▁Çalışma	-10.5601
well	-10.5602
▁okulu	-10.5603
▁protein	-10.5603
▁Gökyüzünde	-10.5604
▁teleskopla	-10.5608
▁Tiyatrosu	-10.561
▁bölümünü	-10.561
▁sorusunu	-10.5612
▁sıraya	-10.5613
▁onlarla	-10.5617
▁soğan	-10.5617
met	-10.5621
▁çocuklara	-10.5622
▁gr	-10.5623
▁çağdaş	-10.5624
▁Dağları	-10.5627
qui	-10.5629
▁günün	-10.5632
-18	-10.5634
▁1970	-10.5636
To	-10.5638
▁48	-10.5643
▁posta	-10.5646
▁peynir	-10.5648
Talimatlar	-10.565
▁geriye	-10.5653
ven	-10.5654
cık	-10.5657
▁gördüğü	-10.5658
mişti	-10.5658
▁memuru	-10.5659
▁в	-10.5659
▁Takım	-10.5659
▁yolculuğu	-10.566
bey	-10.5661
▁Kong	-10.5665
▁listesine	-10.5666
▁pişirin	-10.567
▁üyelerinin	-10.5673
▁mahkeme	-10.5674
▁DNA	-10.5675
▁Am	-10.5678
con	-10.5678
▁Ru	-10.568
▁besteci	-10.5681
▁MS	-10.5682
▁katılmaya	-10.5683
▁ekran	-10.5686
▁marka	-10.569
İlk	-10.5691
ros	-10.5696
▁Ti	-10.5697
▁yurt	-10.5699
▁çoğunluğu	-10.57
▁fırsat	-10.5701
ünün	-10.5701
▁duyulan	-10.5704
▁açılış	-10.5709
▁numara	-10.5709
▁Üzerine	-10.5709
▁kısaca	-10.5717
▁güvence	-10.5719
▁zamanla	-10.572
▁dönme	-10.572
▁Altı	-10.5722
▁34	-10.5723
▁filme	-10.5727
▁Mel	-10.5729
▁Pu	-10.573
▁gelişimi	-10.573
▁Kırmızı	-10.573
▁hit	-10.573
masını	-10.573
▁ilerleyen	-10.5733
▁(19	-10.5734
▁yürüyüş	-10.5735
▁Yeşil	-10.5739
▁hüküm	-10.5747
▁uzmanı	-10.5749
▁You	-10.5751
▁referans	-10.5752
▁Katalog	-10.5753
▁38	-10.5753
▁Çinli	-10.5757
▁varabiliriz	-10.5758
▁Havaalanı	-10.576
▁neler	-10.576
▁yerler	-10.5765
▁Paragraf	-10.5768
▁vurgu	-10.5768
nie	-10.5771
▁düşman	-10.5776
▁kariyerini	-10.5778
▁300	-10.5781
▁Romanya	-10.5785
▁dayanmaktadır	-10.5786
▁karakterini	-10.5788
▁etkinliği	-10.5793
▁2021'	-10.5793
▁kenarı	-10.5793
▁At	-10.5799
▁seçilmiştir	-10.5801
▁nazik	-10.5802
▁sergi	-10.5802
▁dondurma	-10.5804
▁çıkmıştır	-10.5804
▁touchdown	-10.5809
▁aşkın	-10.5813
ino	-10.5815
▁başarıyla	-10.5817
▁kaynaklar	-10.5819
▁Milli	-10.5819
▁toplantı	-10.5823
tel	-10.5823
meye	-10.5824
▁çıkarıyor	-10.5827
▁kale	-10.583
▁oturma	-10.5831
▁lüks	-10.5834
▁Grubun	-10.5835
val	-10.5836
▁1987	-10.5836
▁1985	-10.5838
▁yakındaki	-10.5839
▁Ön	-10.5839
▁domates	-10.5841
▁adil	-10.5841
▁sezonunun	-10.5843
wood	-10.5844
▁kanser	-10.5845
▁sayısal	-10.5847
▁re	-10.5849
▁Boston	-10.5852
▁düzenleme	-10.5855
▁süreli	-10.5856
▁baskın	-10.5856
▁kampanya	-10.5856
▁Tri	-10.5859
▁Dış	-10.586
▁gönderdi	-10.5863
▁öldürüldü	-10.5865
19	-10.5867
▁öğretmeni	-10.587
Tüm	-10.5874
▁doktora	-10.5877
▁sayılı	-10.5878
▁istiyordu	-10.5882
17	-10.5884
▁işletme	-10.5886
▁götürür	-10.5889
▁gerçekleşen	-10.5893
▁olmakla	-10.5893
▁insanlarla	-10.5894
▁Aday	-10.5895
▁yöntem	-10.5897
Sağlanan	-10.5898
▁özür	-10.5901
muz	-10.5907
▁Jr	-10.5911
▁nüfusun	-10.5912
▁telefonu	-10.5917
▁ödülünü	-10.5919
▁Kraliçe	-10.592
▁intihar	-10.5922
▁mutluluk	-10.5933
▁Pat	-10.5933
nik	-10.5934
▁açıklıyor	-10.594
▁1980	-10.5945
▁Carl	-10.5951
▁köpeği	-10.5951
▁bileşenleri	-10.5952
▁köyün	-10.5954
▁oluşmaktadır	-10.5955
▁Cambridge	-10.5957
▁Yasası	-10.5957
▁Yakın	-10.5958
▁Ser	-10.5959
▁gelişen	-10.5966
▁doları	-10.5966
▁gösterime	-10.5966
▁bulunması	-10.5966
▁belirgin	-10.5968
▁dönemin	-10.5969
▁getirdiği	-10.597
▁yayımlandı	-10.5972
▁stres	-10.5972
▁uygulamaları	-10.5976
▁dilde	-10.5982
▁Geri	-10.5983
▁yemekleri	-10.5987
▁Pekin	-10.5988
▁serisi	-10.5988
▁g	-10.5992
ä	-10.5994
▁çıkardığı	-10.6002
way	-10.6003
▁aşı	-10.6004
▁gruplar	-10.6005
▁Kate	-10.6011
▁getirildi	-10.6017
▁Wa	-10.6021
Önerme	-10.6025
for	-10.6025
▁150	-10.6029
▁sokak	-10.603
▁Bulgaristan	-10.6032
▁darbe	-10.6032
▁Simon	-10.6036
▁yöntemi	-10.6036
lanıyor	-10.6039
▁konuyla	-10.6039
Ra	-10.6043
▁Pi	-10.6047
▁eserleri	-10.6051
layıcı	-10.6057
ment	-10.6071
▁Birleşmiş	-10.6073
▁1986	-10.6076
▁ayakkabı	-10.6076
▁başarısı	-10.6079
▁ofis	-10.6082
▁Biyografi	-10.6082
▁verdiğini	-10.6084
lardaki	-10.6085
▁kullanımını	-10.6085
▁65	-10.6088
);	-10.609
▁dizisinde	-10.609
▁nedenlerden	-10.6092
isi	-10.6094
▁çıkarak	-10.6097
▁İlin	-10.6097
▁Bizans	-10.6102
▁yönlü	-10.6105
▁benziyor	-10.6107
tin	-10.6108
▁sürdürülebilir	-10.611
$	-10.6112
▁mesajı	-10.6114
▁macera	-10.6116
▁Jersey	-10.6117
lis	-10.6117
▁for	-10.6118
▁taşır	-10.6119
▁gecesi	-10.612
▁hipotezini	-10.6121
▁olayların	-10.6121
▁Tamam	-10.6122
▁Ürün	-10.6125
▁Ermeni	-10.6127
▁Arjantin	-10.6127
▁yön	-10.6129
lendi	-10.6133
▁===	-10.6137
▁farklılıklar	-10.614
▁katkı	-10.6141
▁çevresinde	-10.6146
▁Vakfı	-10.6147
▁Sar	-10.615
▁yolları	-10.6152
▁tanıyan	-10.6154
▁finansal	-10.6155
▁odası	-10.6156
▁ilçesi	-10.6157
▁kum	-10.6158
▁umut	-10.6159
▁Street	-10.6165
▁Stephen	-10.6166
▁deri	-10.6168
▁küme	-10.6168
▁sera	-10.6171
▁2).	-10.6173
▁okulda	-10.6173
▁değişikliği	-10.6174
▁tasarruf	-10.6176
▁Las	-10.6178
▁kon	-10.6178
ong	-10.6178
▁49	-10.6179
▁Asyalı	-10.6179
▁yönleri	-10.6191
▁albümleri	-10.6195
▁yerleri	-10.6196
▁engel	-10.6197
kı	-10.6201
▁çevrilmiş	-10.6203
▁karşılaştığı	-10.6204
▁Par	-10.6204
▁yakınındaki	-10.6204
▁Ad	-10.6204
nes	-10.6206
▁bölgesinin	-10.6206
▁kısımları	-10.621
▁Johnny	-10.6211
▁yalan	-10.6219
▁One	-10.6219
▁zamana	-10.6221
▁mektup	-10.6221
▁ayrılmış	-10.6225
▁bilinmektedir	-10.6226
▁yapımcılığını	-10.6227
▁Q	-10.6231
▁adımlar	-10.6232
▁yüzünden	-10.6234
▁Kızıl	-10.6239
▁sezonun	-10.6243
▁Clinton	-10.6243
▁arayan	-10.6243
▁Jeff	-10.6244
ket	-10.6246
25	-10.6248
▁Sonraki	-10.625
▁öncesinde	-10.625
tepe	-10.6251
io	-10.6252
▁Havalimanı	-10.6253
13	-10.6254
▁davranış	-10.6255
▁miktarı	-10.6256
Eğer	-10.626
▁belge	-10.6261
▁Nazi	-10.6262
▁miras	-10.6262
▁aylarında	-10.6264
▁Müdürlüğü	-10.627
▁birbirinin	-10.6276
▁Alice	-10.6277
▁Aziz	-10.6277
▁5'	-10.6278
▁binanın	-10.6282
ış	-10.629
▁Trabzon	-10.629
▁dar	-10.6293
iki	-10.6293
▁CNN	-10.6294
▁girdileri	-10.6296
▁faktörleri	-10.63
▁İskoç	-10.63
▁Madrid	-10.6301
ura	-10.6302
▁Modern	-10.6308
▁2000'	-10.631
▁yıldan	-10.631
▁şampiyonluğu	-10.6312
▁Camii	-10.6312
▁katılım	-10.6312
▁zamanki	-10.6313
0.000	-10.6316
Me	-10.6317
port	-10.6319
masına	-10.632
▁Tweet	-10.6324
▁yanlışlıkla	-10.6331
ud	-10.6335
▁v	-10.6336
▁anlayış	-10.634
▁edilemez	-10.6351
▁arkadaşım	-10.6353
▁bildirdi	-10.6353
▁42	-10.6357
▁konumunu	-10.6365
Kara	-10.6366
▁Yalnızca	-10.6367
▁risk	-10.637
▁Evi	-10.6371
mıza	-10.6371
▁onay	-10.6372
▁uydu	-10.6375
▁Gu	-10.6377
▁Wilson	-10.6382
▁hayatının	-10.6383
▁nadir	-10.6386
▁şaşırtıcı	-10.6386
sek	-10.6386
▁Nesne	-10.6388
▁kurgusal	-10.639
▁ülkelerde	-10.639
▁zorluk	-10.639
▁Mustafa	-10.6395
▁etiket	-10.6396
▁şekeri	-10.6398
▁sağlamaya	-10.6402
▁stratejik	-10.6404
lenir	-10.6405
▁Mer	-10.6406
▁cinayet	-10.6407
▁sayfa	-10.6407
▁isimler	-10.6408
▁Önemli	-10.641
▁hedefi	-10.6412
▁dergi	-10.6413
▁söyleyerek	-10.6413
▁özellik	-10.6422
rat	-10.6422
▁ülkesi	-10.6422
▁vücudun	-10.6425
▁Mal	-10.6426
▁anladınız	-10.6428
▁süreçte	-10.6429
▁yaratma	-10.6431
▁Austin	-10.6444
▁elbise	-10.6446
▁Hong	-10.645
▁hakkındadır	-10.6454
▁hükûmet	-10.6454
▁bizim	-10.6456
larınızı	-10.6457
▁dersleri	-10.6458
▁yazmak	-10.6459
▁Tra	-10.6461
▁baktı	-10.6466
▁alışılmadık	-10.6466
▁faktör	-10.6466
▁arkadaşlarıyla	-10.6468
iv	-10.647
iii	-10.6471
▁Devleti	-10.6472
▁gereği	-10.6476
▁topladı	-10.6478
▁$	-10.6479
▁uzman	-10.6479
▁edildiğini	-10.6483
Ü	-10.6484
▁sonuçlarını	-10.6485
▁cesaret	-10.6487
ab	-10.6487
▁rakip	-10.6488
▁aniden	-10.6491
▁Fox	-10.6494
ō	-10.6495
▁uygulaması	-10.6496
▁alırken	-10.6496
▁mağaza	-10.65
ği	-10.6503
▁izledi	-10.6503
▁İnternet	-10.6503
▁Koleji	-10.6506
ydü	-10.6507
▁Dar	-10.6508
ktedir	-10.651
▁yönü	-10.651
▁Lord	-10.6511
▁Şehri	-10.6511
▁Fin	-10.6512
şa	-10.6513
▁şampiyon	-10.6513
▁mekan	-10.6523
▁Robin	-10.6526
ent	-10.6528
▁Susan	-10.6533
▁ayakta	-10.6539
▁Yemek	-10.6547
lerindeki	-10.6547
▁birliği	-10.655
▁animasyon	-10.6552
az	-10.6552
▁Blue	-10.6558
▁Andrew	-10.656
▁çevirebilir	-10.6563
▁Albert	-10.6567
▁kurtarma	-10.6571
▁yöneticisi	-10.6575
▁yeme	-10.6576
▁güreş	-10.6582
▁ettiğinde	-10.6582
▁Greg	-10.6585
▁yazıyor	-10.6587
▁vokal	-10.6592
▁doğusunda	-10.6595
▁yuva	-10.6597
▁vefat	-10.6598
▁yeteneklerini	-10.66
▁Papa	-10.6603
▁2004'	-10.6609
▁değiştirmek	-10.6611
▁izleyici	-10.6612
▁şehridir	-10.6613
▁değişim	-10.6618
▁başlattı	-10.6622
▁muhtemeldir	-10.6622
š	-10.6627
▁hariç	-10.6629
▁Big	-10.6629
▁tehlike	-10.6634
▁statüsü	-10.6635
Man	-10.6641
bra	-10.6642
▁Yıl	-10.6645
▁Rose	-10.6645
tro	-10.6647
▁içeriyordu	-10.6649
▁Hastanesi	-10.6651
▁Kevin	-10.6651
▁karakterize	-10.6652
▁rehberlik	-10.6653
▁testi	-10.6653
ss	-10.6659
▁düşünme	-10.6663
leşme	-10.6665
ral	-10.6666
▁figür	-10.6667
▁bölgeyi	-10.6667
▁koruyucu	-10.6669
▁pişirme	-10.6672
nce	-10.6675
dere	-10.6677
▁Kalesi	-10.6678
▁1968	-10.6679
▁İbranice	-10.668
▁olasılıkla	-10.6681
▁fiyatı	-10.6683
▁buhar	-10.6685
▁kategorisine	-10.6687
▁gemisi	-10.6688
▁karşılaşır	-10.6688
▁Bal	-10.669
▁Fe	-10.669
▁sunduğu	-10.6691
▁ordusu	-10.6692
▁kömür	-10.6694
▁aç	-10.6695
ish	-10.6698
▁h	-10.6703
▁karakterlerin	-10.6704
▁İnsanların	-10.6706
laşma	-10.6707
▁Kur	-10.6708
▁Pre	-10.671
▁öğrendi	-10.671
▁Un	-10.6711
leyici	-10.6713
larındaki	-10.6714
▁Doğal	-10.6715
▁hukuki	-10.6721
▁Ann	-10.6725
▁kaçar	-10.6726
yer	-10.6729
▁Macaristan	-10.6731
▁kategoriye	-10.6733
▁food	-10.6734
▁olmaları	-10.6736
▁sözleri	-10.6738
▁saatlerinde	-10.6738
▁denklem	-10.6739
▁çözelim	-10.6741
▁Fer	-10.6747
▁zafer	-10.6749
▁bar	-10.6751
▁taraf	-10.6755
▁Cumhurbaşkanı	-10.6757
▁tarihinin	-10.6758
▁Kötü	-10.6758
▁orkestra	-10.6759
[+]	-10.6762
▁['	-10.6763
▁olduğunca	-10.6765
başı	-10.6765
▁ihtiyacınız	-10.6766
▁oyuncuların	-10.6769
▁dünyadaki	-10.6772
▁deneme	-10.6772
▁Gece	-10.6774
▁çikolata	-10.6778
▁krizi	-10.6781
▁satırı	-10.6781
▁sağduyuya	-10.6782
▁suda	-10.6786
▁şans	-10.6786
▁politik	-10.6787
▁Tıp	-10.679
▁arkadaşlar	-10.679
▁yarattığı	-10.6791
mez	-10.6791
▁tereyağı	-10.6792
▁şarkısını	-10.6792
▁1983	-10.6792
▁Afrikalı	-10.6793
ladı	-10.6794
▁Uzay	-10.6798
▁öğrencileri	-10.6801
▁gerekecek	-10.6802
▁kral	-10.6808
mp	-10.6808
▁sunmaktadır	-10.681
▁olasılığını	-10.6812
▁duran	-10.6814
Be	-10.6815
▁grupları	-10.6815
▁Andy	-10.6815
▁yerleştirin	-10.6815
▁Mor	-10.6816
▁büyüdü	-10.6817
▁oluşturduğu	-10.6817
gel	-10.6818
▁havaya	-10.6819
▁savaşı	-10.682
▁öğe	-10.682
▁çatı	-10.6824
▁koşu	-10.6824
ABD	-10.6825
и	-10.6826
▁etkilemek	-10.6826
nca	-10.6827
▁devasa	-10.6828
▁bıraktığı	-10.6829
▁direktör	-10.683
▁verdiler	-10.6833
▁Benzer	-10.6834
▁Ga	-10.6836
▁oynar	-10.6852
▁büyüyen	-10.6854
▁1999'	-10.6854
▁dolara	-10.6857
Geçersiz	-10.6861
▁Sha	-10.6861
▁ressam	-10.6861
▁İstasyonu	-10.6862
▁bakıyor	-10.6866
▁attığı	-10.6867
▁konuşmayı	-10.6867
▁oynamaya	-10.6867
▁gömlek	-10.6868
▁öncülde	-10.687
▁kurallarına	-10.6871
▁Portekizce	-10.6872
▁arabanın	-10.6875
▁kek	-10.6876
▁bakımından	-10.688
Küçük	-10.6882
▁Yanıt	-10.6882
las	-10.6885
▁azaltır	-10.6894
▁Is	-10.6895
▁(2).	-10.6896
▁toplamak	-10.6899
▁karşıtı	-10.69
▁katılma	-10.69
önümüzdeki	-10.6903
eri	-10.6904
▁çekme	-10.6906
▁May	-10.6908
▁aktarıyor	-10.6909
Te	-10.691
yon	-10.6916
▁bilgilerle	-10.6918
▁alanlarda	-10.6918
▁Teknoloji	-10.6918
▁banyo	-10.6919
▁tersine	-10.6919
mann	-10.692
4'	-10.692
▁Topluluğu	-10.6921
▁Hristiyan	-10.6921
▁Cameron	-10.6924
▁mısır	-10.6928
▁bekleniyor	-10.6928
▁şefi	-10.6931
▁Çocuklar	-10.6932
om	-10.6933
▁Karşı	-10.6934
leştirme	-10.6935
▁cezasına	-10.6936
▁bağış	-10.6939
▁``	-10.6944
▁64	-10.6945
▁makinesi	-10.6946
▁bilet	-10.6949
▁sıcaklığı	-10.6952
▁Kay	-10.6953
▁öğleden	-10.6954
▁Men	-10.6961
▁kent	-10.6962
▁hastaneye	-10.6965
ğı	-10.6967
▁çeker	-10.6972
In	-10.6973
lak	-10.6974
▁demek	-10.6975
ından	-10.6976
▁hisse	-10.698
▁Harika	-10.698
▁yönde	-10.6982
▁resmî	-10.6986
▁Carolina	-10.6986
▁Yan	-10.6988
▁Tokyo	-10.6988
▁üste	-10.699
▁antrenman	-10.6992
▁konut	-10.6993
▁Com	-10.6996
nizde	-10.6997
▁otobüs	-10.6999
▁benzeyen	-10.7001
▁tümü	-10.7004
▁görülmektedir	-10.7005
▁aşağıda	-10.7007
▁gelmesi	-10.7011
▁hikayeyi	-10.7012
▁37	-10.7014
▁kuşlar	-10.7014
▁anlamda	-10.7018
Çok	-10.7018
▁1000	-10.702
▁düşen	-10.7024
▁NFL	-10.7027
▁Long	-10.7027
▁Aşağıdakiler	-10.7028
▁verecek	-10.703
est	-10.7031
▁kullanmayı	-10.7033
▁Kent	-10.7033
▁yapılacak	-10.7034
▁Inc	-10.7035
▁izliyor	-10.7038
lat	-10.7038
▁kamp	-10.7039
▁arkadaşının	-10.704
▁Olay	-10.704
▁anında	-10.7042
▁değişiklikleri	-10.7045
▁Madde	-10.705
▁icat	-10.705
lon	-10.7051
▁batısında	-10.7051
▁İsim	-10.7064
mize	-10.7067
▁faaliyetleri	-10.7068
▁şeklindeki	-10.7069
▁eleştirmen	-10.7069
▁Disney	-10.7071
▁Bush	-10.7071
▁geliyordu	-10.7075
▁ulaşan	-10.7075
▁1965	-10.7076
▁atık	-10.7077
▁hafifçe	-10.708
▁Siyasi	-10.7081
▁köprü	-10.7081
leyen	-10.7084
▁{	-10.7085
Se	-10.7086
▁Bütün	-10.7088
▁Bundan	-10.7088
▁biliyordu	-10.7091
▁düzenleyin	-10.7094
▁kaçının	-10.7101
rit	-10.7102
▁Tür	-10.7103
▁verilmektedir	-10.7105
▁çevirmektir	-10.7106
▁Premier	-10.7107
▁atlama	-10.7112
▁liderliği	-10.7112
imi	-10.7112
▁başlıca	-10.7114
▁romanı	-10.7119
▁Tiyatro	-10.712
age	-10.7122
▁kentsel	-10.7125
▁Ab	-10.7127
▁deneyimini	-10.713
▁İncelemenin	-10.7133
▁programları	-10.7135
▁kazanma	-10.7144
06	-10.7145
▁nereye	-10.7147
▁(1).	-10.7147
á	-10.7148
▁dünyayı	-10.715
▁kullanıcıların	-10.7153
▁Fi	-10.7153
▁1930'	-10.7155
pp	-10.7157
▁restoranı	-10.7158
▁reaksiyon	-10.716
▁Mahkeme	-10.7161
▁#3	-10.7163
Dünya	-10.7165
▁eşcinsel	-10.7169
▁tutar	-10.7184
▁ihlal	-10.7188
▁nesil	-10.719
▁nedenleri	-10.719
▁restoranın	-10.7192
▁hattı	-10.7196
24	-10.7202
nan	-10.7204
▁kolu	-10.7204
lamak	-10.7207
ski	-10.7208
▁Play	-10.721
▁etmiyor	-10.7213
Ni	-10.7219
▁büyümesi	-10.7219
ff	-10.722
▁savaşın	-10.722
▁bakımı	-10.722
▁Ren	-10.7221
▁gelme	-10.7221
▁başrol	-10.7222
▁Yılın	-10.7222
eti	-10.7222
▁Şirketi	-10.7223
sey	-10.7223
layıp	-10.7226
▁oluşuyordu	-10.7228
tes	-10.7231
▁çevreleyen	-10.7234
▁kimlik	-10.7234
▁ettikleri	-10.7235
▁arkadaşlarının	-10.7236
▁ekmek	-10.7237
▁bütçe	-10.7239
▁Kış	-10.724
▁Yıllar	-10.724
▁varamayız	-10.7242
▁yarısı	-10.7243
▁bomba	-10.7245
▁etiketi	-10.7248
▁Bin	-10.725
▁Android	-10.7251
seniz	-10.7252
▁yolda	-10.7252
▁pizza	-10.7253
▁Rumence	-10.7253
▁400	-10.7255
▁Annesi	-10.726
▁sürpriz	-10.7261
▁fizik	-10.7261
▁Doları	-10.7263
Adam	-10.7265
▁aldıktan	-10.7265
▁temsilcisi	-10.727
▁2002'	-10.7271
amaz	-10.7271
▁sanatsal	-10.7271
Co	-10.7272
▁değiştirildi	-10.7273
▁cesur	-10.7273
kov	-10.728
▁Şa	-10.7281
▁üzgün	-10.7282
▁kalmasını	-10.7282
▁sorar	-10.7285
▁Çevrile	-10.7287
▁etmem	-10.7289
▁yönetmenliğini	-10.729
gin	-10.7291
▁Çift	-10.7292
▁15.	-10.7295
▁bilinç	-10.7298
▁alanlar	-10.7298
▁Alt	-10.7306
▁ırk	-10.731
▁ağırlığı	-10.7311
▁birinde	-10.7314
gal	-10.7319
▁belirterek	-10.7321
▁hayvanları	-10.7322
▁çerçeve	-10.7327
▁takımları	-10.733
▁Okul	-10.733
▁Antarktika	-10.7332
6'	-10.7333
▁Jesse	-10.7334
▁işlevi	-10.7334
▁kod	-10.7335
▁Gi	-10.7336
▁bitkilerin	-10.7338
Ya	-10.734
▁39	-10.734
▁Gürcü	-10.7347
▁etkiye	-10.7351
▁olsaydı	-10.7352
▁partisi	-10.7353
▁anlaşılması	-10.7366
▁Fiil	-10.7368
▁di	-10.7368
▁paragrafta	-10.7371
▁biz	-10.7373
▁performansları	-10.7374
▁iletişime	-10.7378
▁değerleri	-10.7378
▁yakınlarında	-10.7379
unda	-10.738
▁deprem	-10.738
taş	-10.7382
▁Geçen	-10.7382
illa	-10.7383
▁odasında	-10.7389
ier	-10.7398
▁Company	-10.7398
▁Saat	-10.7398
▁kraliyet	-10.7399
zar	-10.7401
▁bulabilir	-10.7401
▁zordur	-10.7402
▁yedek	-10.7403
▁karakterin	-10.7403
▁sen	-10.7403
▁ikisinin	-10.7405
▁Fenerbahçe	-10.7406
▁eğitimini	-10.7407
▁Gar	-10.7408
▁TBMM	-10.7408
▁alıcı	-10.7409
▁1974	-10.7412
▁edilmesini	-10.7414
▁eti	-10.7415
▁ağız	-10.7415
▁giriyor	-10.7416
▁yaşandı	-10.7417
▁sonuçlandı	-10.7419
▁olmadığına	-10.7421
lerdi	-10.7422
▁Antlaşması	-10.7422
▁çalışmalarına	-10.7423
kal	-10.7424
▁aralığı	-10.7425
▁haberi	-10.7426
▁kasabanın	-10.7427
▁pasajda	-10.7428
▁Bursa	-10.7433
▁yavru	-10.7433
я	-10.7434
▁vuruş	-10.7438
cy	-10.7442
▁ayrılan	-10.7446
pan	-10.7446
▁diyet	-10.7448
▁kullanıldığı	-10.7448
▁tarafsız	-10.7448
▁Ford	-10.745
ih	-10.7452
▁işini	-10.7453
▁düğün	-10.7456
▁Dahası	-10.746
▁Av	-10.746
▁sene	-10.7461
Ro	-10.7462
49	-10.7462
▁75	-10.7463
▁Hot	-10.7463
▁IV	-10.7467
kon	-10.7468
▁Michigan	-10.7469
bil	-10.7471
ation	-10.7472
▁Et	-10.7472
▁projesi	-10.7474
▁bal	-10.7475
▁çalışıyorum	-10.7476
▁döndürün	-10.7476
Elbette	-10.7478
▁anki	-10.748
▁anı	-10.7483
▁güreşçi	-10.7483
▁futbolu	-10.7484
▁adının	-10.7486
▁asistanı	-10.7489
▁kol	-10.7493
▁müşterinin	-10.7494
▁odasına	-10.7497
▁kariyerinin	-10.7498
▁karşılıklı	-10.7501
▁İlçesi	-10.7502
▁kutsal	-10.7504
lılar	-10.7504
▁haftalık	-10.7504
top	-10.7506
▁göl	-10.7507
▁köşe	-10.7511
▁Miller	-10.7512
▁Kanadalı	-10.7512
▁1982	-10.7515
Ka	-10.7517
▁bileşenlerini	-10.7518
▁Mahalle	-10.7521
gerektirmediğini	-10.7522
▁Olumsuz	-10.7529
▁altıncı	-10.7533
▁bunlardan	-10.7534
▁tenis	-10.7534
▁şarkılar	-10.7536
▁yüksektir	-10.7538
▁çapındaki	-10.7539
▁eleştirmenin	-10.754
▁Lewis	-10.7542
ska	-10.7546
▁Orman	-10.7546
▁sınırı	-10.7549
▁görevleri	-10.755
▁£'	-10.755
▁elektrikli	-10.7552
▁kanal	-10.7555
▁uçağı	-10.7557
▁işte	-10.7558
▁Antik	-10.7559
▁bölümleri	-10.756
▁verdim	-10.7562
ans	-10.7562
ita	-10.7564
▁geliştirilen	-10.7566
▁Val	-10.7568
▁taşı	-10.7569
▁isteği	-10.7573
▁sırt	-10.7579
▁Dave	-10.7585
▁yenilikçi	-10.7587
▁Kelly	-10.7587
▁bireyler	-10.7588
▁halkının	-10.7589
▁dönüm	-10.759
▁haftada	-10.7592
▁Bell	-10.7597
sha	-10.7598
▁döndüğünde	-10.7599
▁gittiği	-10.7601
▁Wi	-10.7601
▁getirerek	-10.7601
▁dönüşür	-10.7603
▁Caddesi	-10.7605
▁Oscar	-10.7608
▁sınıflandırın	-10.761
▁oturan	-10.7611
▁hazırlık	-10.7614
26	-10.7614
▁Enerji	-10.7617
ram	-10.7619
▁rakibi	-10.762
="2"|	-10.7621
▁düzenlendi	-10.7623
▁isyan	-10.7625
▁azaltmak	-10.7625
▁görüşü	-10.7625
ön	-10.7626
▁Larry	-10.7629
▁kelimesini	-10.7634
ilmiş	-10.7635
▁sergiledi	-10.7636
mal	-10.7637
▁dişi	-10.7638
▁Onlar	-10.7638
▁belirlenmesi	-10.7638
op	-10.7644
▁Güreş	-10.7645
▁bilginin	-10.7646
▁ligi	-10.7647
▁vermiştir	-10.7648
▁hamile	-10.7651
▁araştırın	-10.7654
▁babasıdır	-10.7655
▁Young	-10.7655
▁tanımlıyor	-10.7656
▁Devrimi	-10.7656
▁seçeceğim	-10.7657
▁tartışmalı	-10.7657
Da	-10.7657
ano	-10.7657
▁Hafta	-10.7658
▁altını	-10.7659
▁iade	-10.7659
ella	-10.7663
▁Dizi	-10.7664
▁Evli	-10.7667
▁dilini	-10.7668
▁Türkçeye	-10.7668
▁gelindiğinde	-10.7669
▁serisinin	-10.7669
▁Tren	-10.7673
▁sürü	-10.7677
▁yapacak	-10.7679
▁anti	-10.7679
▁yetenekleri	-10.7685
▁hissetti	-10.7685
▁Walter	-10.7687
▁Jerry	-10.7687
▁tarafa	-10.7687
▁boyutu	-10.7693
▁çıkmaya	-10.7694
▁istiyorsanız	-10.7695
▁unvanını	-10.7695
▁Sunulan	-10.7695
▁patronu	-10.7697
▁eleme	-10.7702
▁kültürü	-10.7702
-2	-10.7702
▁kalitesini	-10.7704
▁Vietnam	-10.7706
▁okumak	-10.771
▁müze	-10.771
▁ata	-10.771
ه	-10.7714
▁Mehmet	-10.7714
▁mm	-10.7715
▁akışını	-10.7717
▁sanayi	-10.7717
▁Yıldız	-10.7717
▁Jay	-10.7718
▁yaklaşımı	-10.7725
▁yolunda	-10.7728
▁ayırmak	-10.7728
maz	-10.7729
▁bağlantılar	-10.773
▁Yolu	-10.7731
▁ifadede	-10.7733
▁с	-10.7735
▁Çevre	-10.7736
▁House	-10.7736
▁Paragrafta	-10.7739
▁konuşuyor	-10.774
idir	-10.7741
evi	-10.7744
▁Düşünce	-10.7748
▁getirme	-10.7752
iyet	-10.7753
▁forvet	-10.7753
▁yaratan	-10.7755
ó	-10.7755
▁gazı	-10.7757
▁mahallesi	-10.7757
▁Yardım	-10.7757
▁yaklaşan	-10.7758
▁Lisa	-10.7759
▁eşyaları	-10.7759
▁salonu	-10.7762
▁artması	-10.7766
Size	-10.7769
▁yarışma	-10.7771
▁Vegas	-10.7771
▁amaçlayan	-10.7773
▁Ye	-10.7774
],	-10.7774
▁röportaj	-10.7775
line	-10.7779
▁Atina	-10.7781
▁planlama	-10.7782
▁bildirin	-10.7782
▁sarmal	-10.7786
▁soruların	-10.7788
▁etkinlikleri	-10.7789
▁güvende	-10.7789
▁çıkmak	-10.7789
hat	-10.7793
lerinizi	-10.7793
▁1981	-10.7793
ağa	-10.7799
ré	-10.7804
▁American	-10.7804
▁sürüldü	-10.7804
▁olabilirler	-10.7804
▁vurgulamaktadır	-10.7804
▁yetkilileri	-10.7806
▁cezası	-10.7807
▁1964	-10.7807
▁kuralları	-10.7808
▁filmleri	-10.7809
32	-10.7809
▁Ada	-10.7812
▁dilleri	-10.7813
▁pembe	-10.782
▁Francis	-10.7822
▁ihtiyacımız	-10.7822
▁milyonlarca	-10.7825
▁görülebilir	-10.7829
▁başkanlığı	-10.7834
Ta	-10.7834
Bunun	-10.7834
▁Parlamentosu	-10.7836
▁olmasının	-10.7837
▁tema	-10.7839
▁aramak	-10.7839
nızda	-10.784
▁şampiyonluk	-10.7842
av	-10.7843
▁Jordan	-10.7844
▁argüman	-10.7844
ice	-10.7845
kça	-10.7845
▁Sch	-10.7845
▁hücreleri	-10.7847
liğine	-10.7849
▁Will	-10.7851
IN	-10.7855
Pa	-10.7857
ası	-10.7859
▁2001'	-10.7863
dra	-10.7863
▁beceri	-10.7864
▁alınır	-10.7867
▁bardak	-10.7874
▁reddeder	-10.788
▁görmez	-10.7882
▁organizasyon	-10.7885
▁Temsilciler	-10.7888
▁gidip	-10.7889
▁gezegen	-10.7893
▁yazarak	-10.7895
Teknoloji	-10.7899
▁Ci	-10.7904
▁bekleme	-10.7907
▁başkent	-10.7907
▁tadı	-10.7911
▁Sidney	-10.7911
▁ifadeyle	-10.7913
▁örnekleri	-10.7914
▁istasyonu	-10.7915
ola	-10.7915
▁zorluklarla	-10.7921
▁uzaklıkta	-10.7922
▁Konuşma	-10.7924
▁mutlak	-10.7924
▁arkasındaki	-10.7925
▁Far	-10.7926
▁jüri	-10.7928
abilecek	-10.7928
▁Tar	-10.7929
▁gerektiri	-10.7931
▁açıklar	-10.7931
şe	-10.7936
▁belgesel	-10.794
▁yüzme	-10.7941
▁oyuncunun	-10.7944
▁sundu	-10.7947
▁üretir	-10.7948
▁beklenen	-10.7948
▁üstlendiği	-10.7949
▁çeşit	-10.795
▁takımlar	-10.7951
▁Viyana	-10.7952
yacağını	-10.7956
▁inanç	-10.7956
▁etkileşime	-10.7957
▁Demir	-10.7957
tus	-10.7959
mizde	-10.796
▁fikirleri	-10.796
▁1976	-10.7963
▁sığ	-10.7963
▁açısı	-10.7969
▁sesli	-10.797
▁şarkıyı	-10.7973
▁Hu	-10.7974
▁rolüyle	-10.7975
▁bıçak	-10.7977
▁verilmesi	-10.7977
▁Ce	-10.798
▁duygular	-10.7982
tek	-10.7987
▁boşluğu	-10.7988
▁bölgesindeki	-10.799
▁yollarını	-10.7991
▁Yarı	-10.7991
gon	-10.7991
▁uç	-10.7993
▁başlangıcı	-10.7993
▁riski	-10.7996
▁duyan	-10.7997
▁geliştirilmesi	-10.7998
▁Stone	-10.8
▁Davis	-10.8003
▁kulüplerinde	-10.8005
inizi	-10.8007
ize	-10.801
▁yakınlarındaki	-10.801
landığı	-10.801
ladığı	-10.8011
▁Başbakanı	-10.8011
▁öncelik	-10.8012
▁(;	-10.8013
▁canlandırdı	-10.8014
▁kadını	-10.8019
and	-10.802
▁tasarlanmıştır	-10.802
kçe	-10.8023
cer	-10.8027
▁başarır	-10.8027
▁saygın	-10.8034
▁açılan	-10.8034
III	-10.8036
pen	-10.804
▁derinlemesine	-10.804
▁olanı	-10.8041
▁seçeneklerin	-10.8042
▁biyografiden	-10.8044
▁layık	-10.8045
▁saldırıya	-10.8046
Cevaplanamıyorsa	-10.8048
Kar	-10.8049
▁daire	-10.8051
▁cevaba	-10.8053
▁Kas	-10.8053
▁oluşuyor	-10.8054
▁kıyafet	-10.8055
▁(2	-10.8057
▁Rob	-10.8057
▁del	-10.806
▁siyaset	-10.806
▁Şampiyonlar	-10.8061
Di	-10.8061
▁artar	-10.8068
▁kuruluşu	-10.8068
tis	-10.8069
▁töreni	-10.8073
▁bulunmak	-10.8074
▁atma	-10.8074
▁kolej	-10.8077
▁yaptıktan	-10.808
▁Haber	-10.8081
▁yukarıdaki	-10.8081
dikleri	-10.8086
3'	-10.8089
▁Avustralyalı	-10.8094
▁formüle	-10.8097
▁kaplı	-10.8099
▁55	-10.8101
▁Music	-10.8102
▁Show	-10.8103
▁kişiliği	-10.8109
tt	-10.8111
36	-10.8114
▁Az	-10.8115
▁Ken	-10.8115
▁Ohio	-10.8117
▁görünüm	-10.8118
▁olmadı	-10.8118
▁Kutsal	-10.812
8'	-10.8123
▁konular	-10.8123
▁atar	-10.8124
▁almasına	-10.8126
▁kullanılıyor	-10.8126
▁tedavisi	-10.8127
▁sürecinde	-10.813
▁Kilise	-10.8131
baş	-10.8135
▁ilişkisini	-10.8137
▁bölgesine	-10.8139
▁Kai	-10.814
▁tablo	-10.814
▁kendinizi	-10.8142
▁filmler	-10.8148
▁Adaylık	-10.815
▁sap	-10.815
▁çıkması	-10.8151
ğını	-10.8153
▁kitapları	-10.8159
▁değiştirdi	-10.8165
Fi	-10.8168
▁iline	-10.8169
▁korunması	-10.8169
▁şehre	-10.8169
▁Ses	-10.8171
▁as	-10.8171
▁başlama	-10.8171
▁mekanik	-10.8172
▁yoluna	-10.8173
▁kontrolünü	-10.8173
▁Jimmy	-10.8173
▁tabanlı	-10.8173
▁konuşmacı	-10.8175
mesini	-10.8177
ray	-10.8179
▁Jake	-10.8179
▁eşdeğer	-10.818
▁üretmek	-10.8181
▁tanımlayan	-10.8182
▁ötesinde	-10.8183
▁mantıklıdır	-10.8193
CNN	-10.8193
▁art	-10.8197
▁minimum	-10.8198
▁berbat	-10.8198
▁gençlik	-10.8199
▁seçti	-10.82
▁Ham	-10.8202
▁Fu	-10.8205
▁nihayet	-10.8206
▁kalmıştır	-10.8207
▁1998'	-10.8207
▁aynalı	-10.8211
▁odaklanan	-10.8213
▁Sarayı	-10.8215
▁düşünüyorsunuz	-10.8216
▁tarihini	-10.8218
▁gezi	-10.8219
▁Howard	-10.8221
ras	-10.8221
▁takıma	-10.8222
▁fon	-10.8223
▁performansını	-10.8226
в	-10.8229
▁stil	-10.8229
▁eyaleti	-10.823
▁parmak	-10.8232
▁[-]	-10.8233
▁turda	-10.8235
▁nesnenin	-10.8237
▁doğruluğunu	-10.8241
▁ikincisi	-10.8242
▁Alexander	-10.8246
eceği	-10.8247
▁domuz	-10.8248
▁müdür	-10.8249
▁yetkililer	-10.8249
▁yürüyor	-10.8249
▁mahkum	-10.8253
▁hane	-10.8255
▁sayısız	-10.8256
▁belirtin	-10.8256
▁istiyoruz	-10.8257
▁Aralığı	-10.8261
▁2022'	-10.8261
kaya	-10.8263
▁Fakat	-10.8264
▁sandalye	-10.8266
▁çıkıp	-10.8266
▁Laura	-10.8269
▁Karl	-10.8269
▁gelişim	-10.8273
▁hali	-10.8274
▁Cor	-10.8274
Konu	-10.8275
▁yaşama	-10.8279
-3	-10.828
▁uygulamaya	-10.828
▁Örnek	-10.8288
İnsanlar	-10.8289
ys	-10.8289
▁genelinde	-10.8294
▁tuttu	-10.8295
cü	-10.8295
▁anlamıyla	-10.8299
▁rekoru	-10.83
21	-10.83
▁1971	-10.8302
▁kanun	-10.8303
▁Cha	-10.8304
▁türünü	-10.8305
▁topluluğu	-10.8305
▁bölgeleri	-10.8307
="6"	-10.8308
▁Ailesi	-10.8309
▁Georgia	-10.8312
▁Doktor	-10.8315
▁konuşmak	-10.8316
▁planlıyor	-10.8317
▁çim	-10.8321
▁Sosyalist	-10.8322
▁Cup	-10.8324
Si	-10.8326
▁turu	-10.8327
▁paylaştığı	-10.8328
▁cihaz	-10.833
▁fırtına	-10.8331
▁sunma	-10.8333
▁denilen	-10.8334
▁farkına	-10.8335
д	-10.8337
tti	-10.8338
nd	-10.8345
▁vahşi	-10.8348
▁unsurlarını	-10.8354
fo	-10.8356
▁görünümü	-10.8358
▁Yaş	-10.8358
▁pilot	-10.8359
▁varılabilir	-10.8372
▁BM	-10.8372
▁satır	-10.8372
▁Sivas	-10.8376
▁alıyordu	-10.8383
▁Erken	-10.8385
▁paylaşıyor	-10.8385
▁kısmında	-10.8388
▁sistemini	-10.8393
idae	-10.8395
▁Komünist	-10.8395
▁değişir	-10.8397
▁vermeden	-10.8397
▁Ol	-10.8398
lem	-10.8398
▁Benim	-10.8399
▁Oklahoma	-10.84
▁içecek	-10.8402
▁gri	-10.8408
▁1967	-10.8409
rin	-10.8411
aş	-10.8416
▁oluşumu	-10.8422
ilk	-10.8424
▁Sırp	-10.8427
▁Yaşlı	-10.8429
▁amacını	-10.843
▁çekirdek	-10.8435
▁balığı	-10.8436
▁kamyon	-10.8441
▁zorluklar	-10.8441
▁yanından	-10.8442
▁It	-10.8443
▁sayıların	-10.8445
▁alabilir	-10.8446
▁baştan	-10.8448
▁1973	-10.845
▁etik	-10.8451
▁görmeye	-10.8451
bin	-10.8453
▁tarihte	-10.8458
▁Hintçe	-10.8458
ımı	-10.8459
▁uyarı	-10.846
▁yaşamın	-10.8461
▁korumaya	-10.8461
%	-10.8463
▁sayısının	-10.8467
▁sistemine	-10.8467
▁sürdürmek	-10.8467
▁görevine	-10.8469
ilen	-10.847
▁News	-10.847
▁terfi	-10.847
▁profesör	-10.8471
▁tanındı	-10.8471
ps	-10.8471
▁değilse	-10.8472
▁Galatasaray	-10.8477
▁izole	-10.8479
▁1975	-10.8479
▁Gerçekten	-10.848
ich	-10.8483
▁hapishane	-10.8486
▁Hipotezin	-10.8486
▁caz	-10.8486
▁gereksiz	-10.8486
▁We	-10.8488
▁bırakma	-10.8488
▁tanımlar	-10.8489
▁(3	-10.8493
▁Moore	-10.8494
▁Önerilen	-10.8497
rma	-10.8498
▁Beşiktaş	-10.8499
dal	-10.8502
▁oluşturdu	-10.8507
с	-10.8508
sıdır	-10.8513
▁gösterebilir	-10.8513
▁kurum	-10.852
▁işletim	-10.8522
▁Vadisi	-10.8524
▁mimar	-10.8525
▁özelliklere	-10.8525
yn	-10.8528
▁gönderildi	-10.8528
▁Hiçbir	-10.8529
▁ulaşma	-10.8531
▁başkalarının	-10.8531
▁sürer	-10.8533
▁etkiliyor	-10.8534
▁değerlendirmek	-10.8539
ell	-10.854
▁Kuyruk	-10.854
▁problemi	-10.8544
▁dönüştü	-10.8544
layabilir	-10.8545
lam	-10.8548
▁turnuva	-10.8549
▁44	-10.8552
▁internette	-10.8553
▁1992'	-10.8555
▁sahnede	-10.8555
▁1977	-10.8559
▁kahvaltı	-10.856
▁Eylem	-10.8567
▁sorgu	-10.8568
▁kıyafetleri	-10.8568
▁vermeyi	-10.8569
▁akım	-10.8569
▁liman	-10.857
zan	-10.8576
▁girmiştir	-10.858
▁intikam	-10.8581
60	-10.8589
▁hizmete	-10.8591
leyerek	-10.8591
▁becerileri	-10.8593
ă	-10.8594
▁ebeveynleri	-10.8599
▁gözleri	-10.8599
▁çelik	-10.8602
▁okulun	-10.8602
▁Zi	-10.8603
▁düşünüyordu	-10.8603
▁uçağın	-10.8604
▁oynamaktadır	-10.8604
▁kesme	-10.8605
▁Uygulama	-10.8606
▁seçeneklere	-10.8608
▁bitiyor	-10.8609
▁ederiz	-10.8611
▁biyografi	-10.8611
▁1979	-10.8611
▁Örgütü	-10.8614
▁Demokratik	-10.8615
▁bünyesinde	-10.8615
▁Latince	-10.862
▁Jennifer	-10.8622
▁gösterilen	-10.8623
▁sahneye	-10.8623
▁1966	-10.8624
▁Atlantik	-10.8626
▁sıralama	-10.8628
▁yapıldığı	-10.8631
▁sebze	-10.8632
▁gelince	-10.8632
▁büyü	-10.8636
▁başlayarak	-10.8636
▁Ger	-10.8643
▁play	-10.8645
dis	-10.865
▁tekil	-10.8652
▁dışına	-10.8655
▁Tour	-10.8656
▁ölçekte	-10.8657
▁İncil	-10.8657
▁istasyon	-10.8658
▁kimya	-10.8659
▁kırıklığını	-10.8659
▁çıplak	-10.8661
▁sigorta	-10.8664
▁konuk	-10.8666
▁Hatta	-10.8666
▁no	-10.8667
▁kitaplar	-10.8669
▁1/2	-10.8669
▁Birlikte	-10.867
▁inceleyin	-10.867
▁sezonda	-10.8673
▁fiyatlı	-10.8673
▁Yunanca	-10.8673
emez	-10.8674
▁uğradı	-10.8676
04	-10.8676
tha	-10.868
▁dizinin	-10.8681
▁etkileşim	-10.8682
▁PersonY	-10.8683
▁koşusu	-10.8684
New	-10.8687
▁bağlayan	-10.8688
▁kaybeden	-10.869
▁tanım	-10.8693
м	-10.8694
▁soruda	-10.8694
▁kısım	-10.8699
▁ardı	-10.8699
▁Hiç	-10.8701
▁Kurt	-10.8703
▁Araba	-10.8705
▁anılır	-10.8705
▁atın	-10.8708
▁Yapı	-10.8709
▁1997'	-10.871
▁çalışıyordu	-10.871
▁etkileyecektir	-10.8711
▁Illinois	-10.8712
ıyla	-10.8717
▁bilinçli	-10.8718
▁azalmasına	-10.8719
▁hastanede	-10.8719
▁Amerikalılar	-10.8719
▁Tan	-10.872
▁gelmez	-10.8722
▁şut	-10.8725
▁Buz	-10.8725
▁Bankası	-10.8727
▁araçları	-10.8728
oloji	-10.8729
▁koyup	-10.8733
▁Kaptan	-10.8733
▁kavramı	-10.8733
▁çıkarılabilir	-10.8736
finanse	-10.8739
▁uzunluğunda	-10.8741
▁Şah	-10.8743
▁yemekler	-10.8744
▁mesleği	-10.8745
▁bağışıklık	-10.8749
Çin	-10.875
▁altyapı	-10.8751
TV	-10.8752
til	-10.8754
▁sıkıcı	-10.8757
▁politikacı	-10.8758
▁6:	-10.8758
kat	-10.8759
▁ölür	-10.8761
büyük	-10.8762
▁sarhoş	-10.8762
▁araştırmalar	-10.8765
▁örnekler	-10.8765
▁canlısı	-10.8771
▁konuşmacının	-10.8773
wi	-10.8773
ex	-10.8777
▁Senato	-10.878
▁etkilerini	-10.8783
▁Che	-10.8788
lüğü	-10.879
▁на	-10.8793
▁varsayılan	-10.8794
▁başlıklı	-10.8797
▁pul	-10.8799
▁oyunlar	-10.8799
▁gününde	-10.8802
▁tarihindeki	-10.8803
Ah	-10.8803
▁patlama	-10.8806
▁kardeşinin	-10.8809
▁azalması	-10.881
▁ülkelerin	-10.8811
▁gerçekleştirdi	-10.8812
dor	-10.8816
▁ailesiyle	-10.8816
▁gerektiğine	-10.8816
▁Endonezya	-10.8819
mesine	-10.8821
▁şöyledir	-10.8821
▁Makedonya	-10.8823
▁oynama	-10.8823
▁felsefe	-10.8824
▁w	-10.8825
▁oğlunun	-10.8826
▁2003'	-10.8828
▁43	-10.8829
▁işten	-10.8834
▁tarif	-10.8834
▁güzellik	-10.8836
▁istekli	-10.8839
▁fırın	-10.8839
▁çalışmayı	-10.8841
▁aileden	-10.8842
mus	-10.8843
у	-10.8844
des	-10.8853
▁yaşamak	-10.8855
29	-10.8856
▁Bor	-10.8857
▁Fred	-10.8859
▁çeşitlilik	-10.8861
▁Kat	-10.8861
▁girdiği	-10.8868
▁Justin	-10.8873
▁Müşteri	-10.8873
ی	-10.8875
▁parkta	-10.8876
▁cevaptır	-10.888
▁başvuru	-10.8885
з	-10.8886
▁yağış	-10.8887
▁çalışmalarını	-10.8887
▁1978	-10.889
▁ettiğinden	-10.8893
▁yaban	-10.8893
▁iyileşme	-10.8895
▁memnuniyetsiz	-10.8897
Fa	-10.8899
▁köle	-10.89
▁Ban	-10.8901
▁cami	-10.8902
▁koşuyor	-10.8903
▁rekor	-10.8903
▁üstün	-10.8906
▁kök	-10.8906
▁özgür	-10.8907
▁türler	-10.8909
▁Koruma	-10.8911
bit	-10.8911
▁olaya	-10.8912
▁organizmalar	-10.8912
▁geliştirdi	-10.8913
dum	-10.8913
▁şekillerde	-10.8914
▁mutfağı	-10.8916
▁@	-10.8917
▁Massachusetts	-10.892
dil	-10.892
▁zamanların	-10.8922
▁deney	-10.8925
▁anlar	-10.8926
▁pencere	-10.8927
▁doku	-10.8928
▁Web	-10.8929
Soruyu	-10.893
▁ilişkilidir	-10.893
▁aza	-10.8932
▁Amy	-10.8933
▁Sistemi	-10.8933
▁Ahmet	-10.8934
▁gösterdiğini	-10.8936
▁işaretleri	-10.8936
▁Ülke	-10.8938
▁noktasına	-10.894
▁Resmi	-10.8944
▁azar	-10.8944
▁sattı	-10.8945
▁Boy	-10.8954
▁sözcüğü	-10.8957
▁kurmaya	-10.8957
▁Kesinlikle	-10.8957
▁maça	-10.8958
▁çoğunun	-10.8958
▁çıkarmaya	-10.8959
▁Bunların	-10.896
▁köyünde	-10.8961
Ama	-10.8963
▁şapka	-10.8965
▁Tommy	-10.8965
▁ağrı	-10.8969
▁anlatmak	-10.897
▁Kor	-10.897
zer	-10.897
án	-10.8971
▁Euro	-10.8973
▁yıldızlı	-10.8973
ity	-10.8973
▁kurduğu	-10.8975
▁kriz	-10.8976
▁açtığı	-10.8977
vel	-10.8977
▁çözme	-10.8977
▁46	-10.8977
klerini	-10.8977
▁Carson	-10.8979
▁bölgelerinde	-10.8979
▁Vali	-10.8982
▁Kal	-10.8983
▁Houston	-10.8986
▁biçimi	-10.8987
▁gelin	-10.899
▁FBI	-10.8991
80	-10.8992
▁geçmek	-10.8997
▁yoğunluğu	-10.8997
▁dökün	-10.8999
▁gönderir	-10.9005
▁konusuyla	-10.9012
▁yakında	-10.9016
▁nem	-10.9016
▁Efendi	-10.9017
▁giymiş	-10.9019
▁günleri	-10.9021
▁die	-10.9024
▁1963	-10.9027
▁Cam	-10.9031
▁Gor	-10.9031
▁deneyimlerini	-10.9032
▁Kaya	-10.9032
▁anlaşması	-10.9034
▁tutuklandı	-10.9034
▁Kon	-10.9034
▁Açıklamada	-10.9035
▁Ber	-10.9036
▁koruyan	-10.9041
mayı	-10.9045
mde	-10.9046
sidir	-10.9046
▁üreten	-10.9046
▁sembolü	-10.9047
▁protesto	-10.9049
▁yaprak	-10.9054
▁oluşturabilir	-10.9055
▁Vo	-10.9056
▁etmez	-10.906
▁eserler	-10.9063
▁bulmamız	-10.9063
▁mide	-10.9065
▁Çince	-10.9066
▁temizleme	-10.9066
▁van	-10.9066
▁algı	-10.9066
▁doğranmış	-10.9068
ther	-10.9068
▁artırdı	-10.9068
lığına	-10.9074
▁zeytinyağı	-10.9077
▁malzemeler	-10.9077
▁Venedik	-10.9079
▁ülkeyi	-10.9081
▁kavramları	-10.9081
Hazırladığınız	-10.9082
▁denklemi	-10.9082
No	-10.9083
▁güçleri	-10.9084
▁miktarını	-10.9086
▁yaşadığını	-10.9086
▁zamandır	-10.9086
▁bilinmeyen	-10.9086
▁uygulanan	-10.9087
▁bölümde	-10.9089
▁1920'	-10.9089
TURN	-10.9091
▁eyaletinin	-10.9091
▁sorunsuz	-10.9097
▁Böyle	-10.9098
▁sevimli	-10.91
▁toplumun	-10.91
▁gergin	-10.9101
▁Ze	-10.9105
▁Club	-10.9105
ica	-10.9109
uri	-10.9113
▁Macar	-10.9115
▁Hareket	-10.9116
▁41	-10.9116
▁yoksun	-10.9116
▁Billboard	-10.9117
▁hikayeye	-10.9122
▁yönünü	-10.9122
▁tahliye	-10.9123
▁finale	-10.9123
37	-10.9125
▁değilim	-10.9125
▁sergileyen	-10.9128
▁yerdir	-10.913
▁ayırt	-10.9134
▁Rachel	-10.9134
▁etmediği	-10.9135
▁geçtiği	-10.9137
▁Tuz	-10.9138
▁hidrojen	-10.9139
mat	-10.9139
▁saatte	-10.9139
▁adama	-10.9139
▁yaşar	-10.9142
▁adalet	-10.9143
00'	-10.9143
▁olamaz	-10.9143
Türkiye	-10.9145
▁neyi	-10.9146
▁çabaları	-10.9148
▁evlat	-10.9152
ika	-10.9152
▁noktalarını	-10.9156
▁sokakta	-10.916
▁dakikada	-10.9161
▁Real	-10.9162
▁Bailey	-10.9163
▁etmeden	-10.9164
▁Oliver	-10.9164
ش	-10.9164
▁analizi	-10.9168
▁strateji	-10.9169
▁kadro	-10.917
▁Morgan	-10.9171
▁Birlik	-10.9172
saat	-10.9175
▁binası	-10.9179
▁istikrarlı	-10.918
▁çıkaran	-10.918
▁hikayesini	-10.9182
▁neyin	-10.9185
▁biçimde	-10.9188
bal	-10.919
▁virgül	-10.9192
▁depo	-10.9195
▁üstünde	-10.9195
▁atıyor	-10.9198
▁tecavüz	-10.9203
rek	-10.9207
▁Matthew	-10.9208
▁kalmasına	-10.9212
stra	-10.9214
yü	-10.9215
▁eylemler	-10.9218
▁politikası	-10.9222
▁tamamlandı	-10.9222
▁yaralanma	-10.9223
▁öneri	-10.9226
▁direktörü	-10.9226
▁buçuk	-10.9228
▁İmparator	-10.9231
▁1972	-10.9232
35	-10.9235
▁gitmeye	-10.9236
▁örgüsü	-10.9236
▁sağlanması	-10.9243
▁sürecinin	-10.9244
▁derinlik	-10.9246
▁bekliyor	-10.9247
▁kalacak	-10.9249
iyi	-10.9251
▁gerçekte	-10.9251
▁gerçekleşir	-10.9253
▁yağlı	-10.9256
▁Küba	-10.9256
▁maliyet	-10.9257
▁şarkıları	-10.9257
▁vampir	-10.9259
▁burun	-10.926
▁asıllı	-10.9265
tr	-10.9267
▁havanın	-10.9267
-17	-10.9268
▁kazanır	-10.9269
▁Detroit	-10.927
▁istihdam	-10.9271
▁dinlenme	-10.9272
▁Oda	-10.9274
▁Dostu	-10.9274
▁Danny	-10.9278
▁Dur	-10.928
▁kanseri	-10.9281
▁Din	-10.9282
not	-10.9282
▁Es	-10.9284
▁dürüst	-10.9284
Er	-10.9285
▁çalışarak	-10.9285
▁makaleden	-10.9287
lenmesi	-10.9287
hl	-10.9287
▁Ahmed	-10.9291
▁gül	-10.9291
▁dergisi	-10.9294
▁Helen	-10.9295
▁Live	-10.9296
Lo	-10.9299
▁ağı	-10.93
▁kazan	-10.9303
▁pazarlama	-10.9305
▁cevabın	-10.9306
▁zıt	-10.9307
▁çeyrek	-10.9307
▁Mon	-10.9308
DIFF	-10.9308
▁pirinç	-10.931
▁buraya	-10.9313
▁Pop	-10.9317
▁öldürülür	-10.9317
▁Sta	-10.9318
▁Eve	-10.9319
▁gönderi	-10.9321
▁Victor	-10.9321
▁bakmak	-10.9321
▁açmak	-10.9322
burg	-10.9324
lim	-10.9325
▁mizah	-10.9326
48	-10.933
▁planları	-10.9332
▁Mavi	-10.9332
▁şikayet	-10.9336
▁şehrinin	-10.9337
gün	-10.9338
▁Alaska	-10.9341
▁Büyükşehir	-10.9342
bb	-10.9343
▁konuştu	-10.9343
▁günümüze	-10.9347
▁1950	-10.9348
▁seyirci	-10.935
▁Royal	-10.935
▁zamanın	-10.935
▁Arnavutluk	-10.9352
▁azalma	-10.9356
St	-10.9359
▁Philadelphia	-10.936
▁kusursuz	-10.936
▁yenerek	-10.936
▁oynamıştır	-10.9361
▁Lawrence	-10.9363
ebileceği	-10.9363
▁kala	-10.9364
▁neyle	-10.9365
▁Sarı	-10.9366
о	-10.9369
▁°	-10.9372
ıl	-10.9374
▁ilerledikçe	-10.9374
▁kanalı	-10.9375
09	-10.9375
▁devamı	-10.9376
▁dön	-10.9382
▁Üst	-10.9382
Ko	-10.9385
▁belirlenen	-10.9388
Ak	-10.9389
▁unvanı	-10.939
▁Kuş	-10.9392
▁geçmesi	-10.9393
▁hangisidir	-10.9394
т	-10.9394
▁hafıza	-10.9396
▁öfke	-10.9396
▁1959	-10.9398
▁kendisinden	-10.9399
▁gitarist	-10.9402
99	-10.9403
42	-10.9403
▁geçmişte	-10.9403
▁çekimi	-10.9403
▁günümüz	-10.9406
▁muhtemel	-10.9407
▁ter	-10.9409
Bağlam	-10.9412
▁52	-10.9413
▁Cu	-10.9413
▁Allen	-10.9413
mun	-10.9415
▁disk	-10.9418
▁amatör	-10.9419
▁ayar	-10.9422
▁çiftçi	-10.9423
▁biçiminde	-10.9425
▁Liverpool	-10.9425
lanabilir	-10.9426
leyin	-10.9429
eh	-10.9429
▁(5	-10.9431
28	-10.9431
ile	-10.9431
▁zevk	-10.9433
▁ülkeden	-10.9433
mıyor	-10.9434
▁evden	-10.9435
▁anlatı	-10.9444
▁riskini	-10.9445
▁Group	-10.9448
▁aptal	-10.9449
▁Christopher	-10.9449
Pekala	-10.945
▁sosu	-10.9453
lay	-10.9454
▁yaşıyordu	-10.9457
▁Yarımadası	-10.9457
▁deneyimleri	-10.9458
▁harcama	-10.9459
▁120	-10.946
▁Roy	-10.9462
▁mor	-10.9463
▁War	-10.9465
lanıp	-10.9465
▁sahil	-10.9469
▁görevden	-10.9469
pro	-10.947
▁be	-10.9472
▁terör	-10.9472
eq	-10.9473
▁beden	-10.9474
▁Air	-10.9477
▁sayılar	-10.9478
▁Pen	-10.9479
▁CEO	-10.9484
▁açın	-10.9484
bet	-10.9484
▁Profesör	-10.9485
▁platform	-10.9485
▁bulunarak	-10.9485
▁dayanıklı	-10.9486
▁Hasan	-10.949
low	-10.9491
▁yaşamaktadır	-10.9493
▁yorumu	-10.9494
▁Not	-10.9497
44	-10.9499
▁yaratıyor	-10.95
▁ak	-10.9502
▁bulundurun	-10.9506
▁ikamet	-10.9508
▁anlaşmaya	-10.9508
▁biliniyor	-10.9509
▁Bra	-10.9511
▁Tıpkı	-10.9513
▁kaldırmak	-10.9514
▁eleştiriler	-10.9515
▁almasını	-10.9516
cher	-10.9517
▁gerçekçi	-10.9519
Do	-10.9519
▁çevrilebilir	-10.9521
▁Ş	-10.9523
▁defalarca	-10.9525
lma	-10.9526
tter	-10.9527
ledi	-10.9529
my	-10.9532
▁unutmamak	-10.9536
oy	-10.9536
▁durdu	-10.9537
▁İbrahim	-10.9538
▁Sağ	-10.954
▁kökeni	-10.954
▁derecesi	-10.9545
▁grubudur	-10.9546
▁sindirim	-10.9548
▁köyde	-10.9548
č	-10.9548
ora	-10.955
▁arzu	-10.9554
Vi	-10.9554
▁alanını	-10.9556
▁eylemin	-10.9556
▁Harris	-10.9558
▁Jessica	-10.9559
▁gereklidir	-10.9561
▁oranında	-10.9563
▁etrafındaki	-10.9563
▁ameliyat	-10.9565
▁dua	-10.9567
▁Steven	-10.9568
▁filtre	-10.9569
Mar	-10.9569
▁geçirme	-10.9572
▁ülkeye	-10.9574
▁Ju	-10.9575
▁Biyografide	-10.9576
▁içmek	-10.9576
▁kimliği	-10.9577
üm	-10.9578
tas	-10.9579
▁Yardımcı	-10.9579
del	-10.958
▁yüzyıldan	-10.9581
▁endüstriyel	-10.9583
lanarak	-10.9583
▁alay	-10.9583
▁bırakıyor	-10.9583
▁verirken	-10.9586
▁tat	-10.9589
cho	-10.959
▁yeraltı	-10.959
▁fikirde	-10.959
▁öğeleri	-10.959
▁kısmına	-10.9591
▁şimdiki	-10.9592
▁karşılaştırma	-10.9592
▁gübre	-10.9593
▁arar	-10.9596
▁Görünüş	-10.9597
▁yedinci	-10.9598
▁Seçim	-10.9599
pol	-10.96
▁dize	-10.9604
cia	-10.9605
▁Kemal	-10.9606
▁yaşı	-10.9606
▁böcek	-10.9607
are	-10.9607
▁anlattı	-10.9608
▁iniş	-10.9608
▁duyar	-10.9609
▁1996'	-10.961
▁sözcüsü	-10.9612
cılık	-10.9613
▁tıklayın	-10.9613
▁Hal	-10.9616
▁hareketli	-10.9617
▁tanımladı	-10.9618
Diğer	-10.9619
▁söyleme	-10.962
▁itiraz	-10.9621
▁deneyin	-10.9622
▁trajik	-10.9622
▁Pri	-10.9622
ix	-10.9623
▁açma	-10.9624
▁tuvalet	-10.9624
süz	-10.9625
▁Askeri	-10.9627
▁yapmanın	-10.9628
▁Atatürk	-10.9628
▁ani	-10.963
▁çalıyor	-10.963
▁Basit	-10.9631
▁dedin	-10.9633
▁heykel	-10.9636
▁yazım	-10.9638
▁unsurlar	-10.9638
▁gerçekleştiği	-10.964
▁edebiliriz	-10.964
▁başladığında	-10.9643
▁Taş	-10.9649
ef	-10.9651
▁temizlik	-10.9651
▁düşündüğü	-10.9652
▁Dili	-10.9652
▁Prix	-10.9652
▁atom	-10.9653
▁kır	-10.9653
23	-10.9657
▁Ö	-10.9658
▁aşağıdakiler	-10.9659
▁bakteri	-10.9664
▁girişimi	-10.9665
▁çekilen	-10.9666
▁aykırı	-10.9666
▁oğulları	-10.9667
▁ser	-10.9667
▁paylaşmak	-10.9669
▁düzenledi	-10.967
▁tanıma	-10.9672
▁konunun	-10.9672
▁geçme	-10.9675
▁önerin	-10.9676
▁Bitki	-10.9677
▁meclis	-10.9679
▁Marie	-10.968
▁Bilgileri	-10.9681
▁sunmak	-10.9682
▁oyuncuları	-10.9682
▁edinmek	-10.9682
▁yavaşça	-10.9683
▁partinin	-10.9685
3)	-10.9686
▁maden	-10.9688
▁1989'	-10.9689
▁rakam	-10.9694
▁konuma	-10.9695
▁rüya	-10.9696
cılar	-10.97
▁Bilgisayar	-10.9701
▁elinden	-10.9701
▁edilmesine	-10.9704
Yanlış	-10.9706
▁acımasız	-10.9706
▁Gösteri	-10.9707
▁Mahallesi	-10.9708
▁Entertainment	-10.9713
▁bilimi	-10.9714
▁Santa	-10.9714
los	-10.9715
р	-10.9717
EC	-10.9719
▁Bond	-10.972
şu	-10.9722
rem	-10.9722
▁Post	-10.9722
▁dağılımı	-10.9723
▁1991'	-10.9723
▁Wood	-10.9724
▁açıyor	-10.9724
▁alanının	-10.9724
tif	-10.9724
▁yönetti	-10.9729
▁Bowl	-10.9732
▁İlçe	-10.9734
▁beğeni	-10.9736
▁ilişkilerini	-10.9738
▁bırak	-10.9742
Tek	-10.9742
▁Donanması	-10.9743
▁alınmıştır	-10.9743
▁Lucy	-10.9745
▁hayvanın	-10.9747
▁korunmasına	-10.9749
▁söyleyin	-10.9751
▁gitme	-10.9751
üz	-10.9752
üne	-10.9753
▁yaratır	-10.9755
hal	-10.9755
ي	-10.9756
mızda	-10.9756
▁mobil	-10.9757
64	-10.9757
ite	-10.9763
▁yoludur	-10.9765
▁iyileştirme	-10.9768
▁tozu	-10.9769
▁kaçınmak	-10.9771
▁konuya	-10.9773
jan	-10.9775
▁yarışması	-10.9775
▁yapılandırılmış	-10.9777
▁Zu	-10.9779
MA	-10.978
▁teklifine	-10.9782
▁kentindeki	-10.9784
▁yapabilir	-10.9786
mos	-10.9788
▁yankı	-10.9788
▁erkeklerin	-10.9789
▁musun	-10.979
▁sos	-10.979
▁Listesi	-10.9791
▁mantar	-10.9791
▁pozisyon	-10.9795
ılmış	-10.9796
sis	-10.9797
▁Anderson	-10.9797
▁tarafındaki	-10.9798
ن	-10.9798
▁gördüm	-10.9799
▁düşüncesi	-10.9799
▁olmaz	-10.98
22	-10.98
▁yetenek	-10.9802
▁adları	-10.9802
tion	-10.9804
Ev	-10.9804
▁konularda	-10.9805
San	-10.9805
▁Hat	-10.9808
▁bildirim	-10.9809
zen	-10.981
▁Bosna	-10.9812
▁ağacın	-10.9812
▁faktörlerin	-10.9814
▁karşılaştı	-10.9815
▁psikolojik	-10.9816
▁Denklemin	-10.9817
▁Diego	-10.9817
▁bırakıldı	-10.9822
▁düşüş	-10.9825
▁Quinn	-10.9825
▁gerçekleştirmek	-10.9825
▁antrenör	-10.9826
▁bağlantıları	-10.9826
nar	-10.9828
▁gölge	-10.9829
cht	-10.9833
▁hastane	-10.9833
▁olurlar	-10.9833
▁cihazı	-10.9834
▁makalede	-10.9834
▁Jacob	-10.9834
к	-10.9834
sol	-10.9836
▁seti	-10.9837
▁benzin	-10.9837
▁Napolyon	-10.9838
▁sunarak	-10.9838
▁Sezon	-10.9838
▁×	-10.9843
▁içme	-10.9847
▁57	-10.9849
mın	-10.9852
▁başlamak	-10.9855
▁çıkararak	-10.9855
▁Casey	-10.9858
▁yakaladı	-10.986
yet	-10.9863
▁Manhattan	-10.9864
▁sözlü	-10.9865
▁birey	-10.9867
▁görünce	-10.9867
Kuzey	-10.9867
▁ulaşır	-10.9868
▁Je	-10.9868
▁ağacı	-10.9874
▁"(	-10.9875
▁oluşturuyor	-10.9879
▁pantolon	-10.988
section	-10.988
▁Takımı	-10.988
▁profesörü	-10.9882
▁sürücü	-10.9882
liyor	-10.9882
▁taciz	-10.9883
▁Görevi	-10.9883
▁1940'	-10.9884
▁yüzlerce	-10.9886
▁yaşta	-10.9887
▁öldüğü	-10.9887
▁duydu	-10.9889
▁Radyo	-10.9891
▁girme	-10.9891
▁giyim	-10.9892
▁tekne	-10.9893
▁kanat	-10.9893
▁tanımlanan	-10.9896
▁sizden	-10.9897
bor	-10.9902
02	-10.9903
▁Tel	-10.9904
▁uğrar	-10.9906
▁Columbia	-10.9911
▁gövde	-10.9912
▁Hor	-10.9912
▁davranışları	-10.9914
▁seçilmiş	-10.9916
▁tedirginlik	-10.9917
']	-10.9917
▁(2)	-10.992
▁faktörlere	-10.9922
▁ortalarında	-10.9922
▁sorumluluk	-10.9924
abileceği	-10.9925
▁hissi	-10.9925
▁kuvveti	-10.9927
▁çiftin	-10.9927
lit	-10.9928
▁Rick	-10.9929
vat	-10.9929
▁yarısında	-10.9931
Bay	-10.9933
▁hatası	-10.994
▁ka	-10.9941
▁rahatlama	-10.9943
▁Siyah	-10.9943
▁araçlar	-10.9944
▁atmak	-10.9944
bay	-10.9945
▁düşündüm	-10.9948
▁alanlarında	-10.995
▁açıklayayım	-10.995
▁Önermeyi	-10.9951
▁polisi	-10.9952
▁bilgilerden	-10.9952
▁konuşmaya	-10.9954
▁hükümetinin	-10.9954
▁seviyeleri	-10.9955
▁Şöyle	-10.9955
ens	-10.9956
▁tabi	-10.9958
▁Suudi	-10.9959
▁ihtiyaçlarını	-10.9959
▁com	-10.9959
▁işin	-10.9959
▁1969	-10.996
▁başlamış	-10.996
▁ikonik	-10.9961
▁Tor	-10.9961
▁uygundur	-10.9961
Amerikan	-10.9962
▁savundu	-10.9964
▁göğüs	-10.9964
Seçenekler	-10.9965
▁yuvarlak	-10.9966
▁katılmıştır	-10.9967
▁Hırvatistan	-10.9969
▁yaşamaya	-10.9969
▁Yarışma	-10.9971
▁bulabilirsiniz	-10.9971
▁Kamu	-10.9973
▁fırsatları	-10.9975
▁geçiren	-10.9976
▁boyut	-10.9977
▁kütüphane	-10.9977
▁National	-10.9979
▁Köprüsü	-10.998
▁kaçtı	-10.998
01	-10.9981
▁voleybol	-10.9981
▁dramatik	-10.9981
▁milyondan	-10.9984
31	-10.9984
▁aşamasında	-10.9984
▁bayrak	-10.9985
▁Bilimler	-10.9985
▁yapamam	-10.9988
ls	-10.9989
▁Kosova	-10.999
í	-10.9992
▁programında	-10.9992
▁komutanı	-10.9993
]]	-10.9994
▁Televizyon	-10.9995
▁oluşturmaktır	-10.9995
▁diplomatik	-10.9996
▁çalışmasını	-10.9998
▁kural	-11.0003
▁kirli	-11.0003
▁teklifi	-11.0004
▁rastgele	-11.0005
▁sürümü	-11.0006
▁başlamadan	-11.0007
bat	-11.0007
▁teori	-11.0008
40	-11.001
▁Rum	-11.0013
▁saray	-11.0015
▁entegre	-11.0015
▁Sara	-11.0015
90	-11.0018
▁YouTube	-11.002
▁kurabiye	-11.002
cilik	-11.0025
▁memleketi	-11.0025
ct	-11.0027
▁meslek	-11.0027
▁boyutlu	-11.0028
sunu	-11.0032
▁ihtiyaçları	-11.0035
▁konuşmanın	-11.0035
▁takımda	-11.0036
▁öldürdü	-11.0037
Ga	-11.0038
▁söyle	-11.0039
▁aldıkları	-11.004
▁gen	-11.0043
▁gruptan	-11.0043
▁görevinden	-11.0043
▁Dor	-11.0043
▁usta	-11.0043
▁kalanı	-11.0043
▁çete	-11.0044
▁sayılabilir	-11.0046
▁davul	-11.0046
▁yemeğin	-11.0047
▁oyunda	-11.0047
▁1956	-11.0047
▁Kansas	-11.0048
▁ipuçları	-11.005
▁yaşına	-11.005
▁Herschel	-11.005
▁ekleme	-11.0054
▁istenen	-11.0055
▁değiştirin	-11.0057
mas	-11.0059
▁noktalar	-11.0059
▁ayrılmıştır	-11.0059
▁kütle	-11.006
▁yöneten	-11.006
▁canlandırıyor	-11.0061
▁şarkıcısı	-11.0061
▁doğrulamak	-11.0061
▁sayıyı	-11.0062
sat	-11.0064
▁pound	-11.0065
rie	-11.0066
gg	-11.0067
▁47	-11.0068
ach	-11.0069
ST	-11.007
▁1962	-11.0073
▁Dördüncü	-11.0074
▁metro	-11.0075
▁saati	-11.0075
▁perde	-11.0075
ā	-11.0077
▁kurşun	-11.0081
▁Sonuçta	-11.0083
red	-11.0083
log	-11.0084
▁çevredeki	-11.0085
▁Alanı	-11.0087
▁durumuna	-11.0087
ou	-11.0088
▁vatandaşı	-11.009
▁bakanı	-11.0092
▁Komutanlığı	-11.0094
mit	-11.0095
Robert	-11.0095
▁etkiledi	-11.0098
▁fare	-11.0102
▁-1	-11.0102
▁bağlılığı	-11.0102
▁kalem	-11.0104
▁Benjamin	-11.0106
▁katil	-11.0107
▁Min	-11.011
▁Adana	-11.0113
▁yerleşik	-11.0116
▁fabrika	-11.0117
▁Land	-11.0118
▁eklemek	-11.0119
▁yapısal	-11.0119
▁Day	-11.0119
▁evrensel	-11.0121
lenebilir	-11.0125
▁güvenliğini	-11.0125
▁Has	-11.013
▁engelli	-11.0134
pınar	-11.0134
▁haklarını	-11.0136
ette	-11.0138
▁değişimi	-11.0141
▁taşımak	-11.0142
▁defans	-11.0143
yacak	-11.0144
▁yırtıcı	-11.015
▁rekabetçi	-11.015
▁çocuğa	-11.0152
bert	-11.0152
▁Yaşam	-11.0152
▁Süreç	-11.0157
▁blok	-11.0158
▁ekleyip	-11.0158
ille	-11.016
▁İkili	-11.0163
▁kör	-11.0164
▁çaldı	-11.0165
▁turizm	-11.0166
▁bulundurarak	-11.0168
▁kuzeni	-11.0169
▁Diyelim	-11.0172
▁içe	-11.0174
▁limon	-11.0175
▁Konya	-11.0175
▁Miami	-11.0176
▁sorumludur	-11.0178
▁okuduktan	-11.018
ph	-11.0181
▁gelerek	-11.0183
ebilecek	-11.0183
▁Del	-11.0184
▁54	-11.0185
86	-11.0186
▁sesle	-11.0187
▁kemik	-11.0189
▁takımlarından	-11.0189
▁Soruda	-11.0191
▁başından	-11.0193
▁bulunuyordu	-11.0195
▁Masa	-11.0195
▁250	-11.0196
▁Albümün	-11.0196
▁değişken	-11.0198
▁suikast	-11.0199
▁maçları	-11.0201
▁belirleme	-11.0205
▁sanatı	-11.0207
▁Kalkınma	-11.0208
▁üyesiydi	-11.0209
▁Yönergeler	-11.021
Eski	-11.021
▁yükselen	-11.0213
▁girerek	-11.0215
▁oluşmasına	-11.0216
yar	-11.0218
mes	-11.0219
▁International	-11.0223
▁kalmış	-11.0223
An	-11.0226
▁Shi	-11.0228
▁Patrick	-11.0229
▁geliştirmeye	-11.0232
▁verilerle	-11.0233
leniyor	-11.0234
▁hikayeler	-11.0235
▁koku	-11.0238
▁kase	-11.0238
▁Nasıl	-11.0238
▁Koreli	-11.0238
▁dek	-11.0242
▁kanıtlar	-11.0243
dıkları	-11.0243
▁Mü	-11.0246
acaktır	-11.0247
▁Island	-11.0248
▁kalite	-11.0249
ona	-11.0253
▁gök	-11.0254
▁zar	-11.0255
eski	-11.0256
▁kalıntıları	-11.0257
tma	-11.0262
▁tamir	-11.0263
fen	-11.0264
▁kazanarak	-11.0265
▁Dev	-11.0266
▁önermesi	-11.0268
▁Roger	-11.0268
▁başlandı	-11.0269
öl	-11.0269
▁tanrı	-11.0269
▁Ur	-11.0269
▁kiralık	-11.027
▁hipotezinin	-11.027
▁türünün	-11.0271
▁yasak	-11.0271
▁uzaktan	-11.0273
▁hamur	-11.0274
▁Pete	-11.0275
▁bak	-11.0278
iç	-11.0279
▁seven	-11.0279
▁gitmesi	-11.028
▁durumla	-11.0281
▁İspanyolcaya	-11.0288
▁bant	-11.0289
▁hazırlanan	-11.0292
▁taşıdı	-11.0294
▁şampiyonluğunu	-11.0294
▁samimi	-11.0295
▁kira	-11.0295
▁ikiye	-11.0295
▁odaklı	-11.0296
▁suyla	-11.0297
ت	-11.0299
▁Gaz	-11.0299
▁endişeleri	-11.03
Michael	-11.0301
▁Mah	-11.0303
▁Bas	-11.0303
▁türün	-11.0306
He	-11.0308
▁kullandım	-11.0309
▁albümüdür	-11.031
▁boru	-11.0311
▁Sıcak	-11.0312
▁prestijli	-11.0312
bas	-11.0312
▁ال	-11.0316
▁hücum	-11.0316
ub	-11.0316
▁enerjiye	-11.0316
▁listedeki	-11.0316
▁sabırsızlıkla	-11.0319
▁İpucu	-11.0321
▁açıklamalar	-11.0323
▁ülkeleri	-11.0327
Bo	-11.0327
▁ayda	-11.0328
▁çocukluk	-11.0329
aç	-11.033
▁baskısı	-11.0333
▁kongre	-11.0339
▁katılımı	-11.034
▁savaşta	-11.034
▁tencere	-11.0341
▁yerleşti	-11.0345
pu	-11.0346
▁Ortodoks	-11.0348
▁maçın	-11.0351
▁istihbarat	-11.0353
▁hızını	-11.0354
▁1945	-11.0354
▁sesini	-11.0356
▁personeli	-11.036
▁tahmini	-11.0361
▁kendimi	-11.0363
▁kariyerinde	-11.0363
▁sürecine	-11.0365
Hangi	-11.0366
▁par	-11.0367
▁uygulanması	-11.0368
▁olumsuzdur	-11.0371
olog	-11.0373
▁kasıtlı	-11.0373
▁kriket	-11.0373
▁Bunlardan	-11.0373
▁uyar	-11.0374
▁Yönetmen	-11.0374
ağı	-11.0376
▁vaka	-11.0376
▁gerekmektedir	-11.0379
▁boşlukları	-11.038
art	-11.038
▁şeylerin	-11.038
▁Aaron	-11.0384
▁borç	-11.0387
▁insani	-11.0389
▁maddeler	-11.039
▁çalan	-11.039
▁avukatı	-11.0391
üp	-11.0391
▁EP	-11.0391
▁güncelleme	-11.0392
hen	-11.0392
▁üreticisi	-11.0394
▁yanındaki	-11.0395
ú	-11.0395
500	-11.0396
▁şiddetle	-11.0397
▁dal	-11.0399
İspanyolca	-11.0399
▁olmayacak	-11.0402
▁esir	-11.0406
▁yüzü	-11.0406
▁Gençlik	-11.0407
▁ekiplerinden	-11.0407
▁eşsiz	-11.0407
▁aramaya	-11.041
▁döngü	-11.0412
▁hücreler	-11.0414
▁anılan	-11.0416
era	-11.0416
▁çevrilmiştir	-11.0419
nos	-11.0419
▁Kennedy	-11.042
▁yapımında	-11.042
▁Miss	-11.0422
▁Carter	-11.0427
▁sunucusu	-11.0428
▁Kasaba	-11.0428
▁Kongresi	-11.043
▁ailesine	-11.043
▁pa	-11.0431
07	-11.0432
Ba	-11.0434
▁odun	-11.0435
▁noktaya	-11.0436
▁övgü	-11.0437
▁yerinden	-11.0437
▁fit	-11.0438
▁yayınlanmıştır	-11.0442
▁ver	-11.0447
Bunlar	-11.0448
▁ahlaki	-11.0448
▁[[	-11.0448
▁uygulayın	-11.0449
▁varsayalım	-11.0451
▁cümlesini	-11.0452
▁ihtimali	-11.0454
mis	-11.0454
▁Singapur	-11.0457
▁etmesiyle	-11.0458
▁ekleyerek	-11.0458
▁menü	-11.0463
78	-11.0464
abilen	-11.0466
▁arabası	-11.0467
▁açıklamasını	-11.0467
▁sağlayacaktır	-11.0467
▁dönmek	-11.0467
▁kadarki	-11.0468
acağı	-11.0471
▁İdari	-11.0472
▁hayatın	-11.0472
▁Ağ	-11.0477
▁bit	-11.0478
▁öneme	-11.048
Cevabı	-11.0482
▁bugünkü	-11.0482
▁akla	-11.0485
▁mülk	-11.0485
İnceleme	-11.0486
▁sınıflandırma	-11.0489
▁çarpma	-11.0491
▁Akşam	-11.0492
▁0,	-11.0493
▁devletin	-11.0495
▁sayının	-11.0495
▁dersler	-11.0497
yani	-11.0498
▁çapraz	-11.0498
liler	-11.05
▁karşılaşma	-11.0501
▁dostluk	-11.0502
▁parlamento	-11.0502
▁1955	-11.0505
▁verirler	-11.0506
kel	-11.0506
yım	-11.0507
▁taşınır	-11.0508
aynı	-11.051
▁1940	-11.0511
hr	-11.0513
▁1995'	-11.0514
▁bırakarak	-11.0515
▁sandviç	-11.0516
57	-11.052
▁kişilere	-11.0523
▁nedenini	-11.0524
▁Çağı	-11.0524
▁İkisi	-11.0525
▁giyiyor	-11.0525
▁İn	-11.0527
ston	-11.053
▁yıkıcı	-11.053
000	-11.0531
▁geçtikçe	-11.0531
Ku	-11.0531
▁sunucu	-11.0532
▁Bulgar	-11.0533
nt	-11.0534
nuz	-11.0534
▁51	-11.0534
▁analize	-11.0535
▁Arabistan	-11.0535
▁Indiana	-11.0535
▁kasabası	-11.0536
▁üstü	-11.0536
▁örgüsünden	-11.0537
▁dost	-11.0539
▁etmemiz	-11.054
▁valisi	-11.0543
▁verilerin	-11.0543
▁örgüt	-11.0548
▁gittiğini	-11.0549
▁çalış	-11.055
▁çalışmanın	-11.0551
▁saatlik	-11.0552
Genç	-11.0555
mb	-11.0556
▁açıklandı	-11.0557
şan	-11.0557
alım	-11.0559
▁düzeyi	-11.056
▁kuran	-11.0568
▁Biraz	-11.0569
▁icra	-11.057
▁kıta	-11.057
▁56	-11.0571
33	-11.0572
▁hat	-11.0573
▁yatan	-11.0575
▁koymak	-11.0577
г	-11.0577
▁adlandırılır	-11.0579
▁merkezinin	-11.0583
▁yaşamış	-11.0584
▁Yazı	-11.0587
▁tamam	-11.0588
▁tarzını	-11.059
LA	-11.059
▁istemek	-11.0594
▁Anthony	-11.0596
▁bağımlı	-11.0596
▁kur	-11.0597
ıcı	-11.0598
▁ortamında	-11.0599
▁Yeterli	-11.0599
▁danışmanı	-11.0601
▁şirketler	-11.0604
▁Yayın	-11.0606
▁Edebiyat	-11.0609
ero	-11.061
▁(10	-11.0612
more	-11.0616
▁Liste	-11.0617
▁Bil	-11.0617
▁taksi	-11.0619
▁akış	-11.0621
vis	-11.0623
▁çıkmasına	-11.0623
▁klip	-11.0625
ring	-11.0625
▁Mali	-11.0625
oid	-11.0626
م	-11.0627
>	-11.0628
▁Tracy	-11.0628
pin	-11.0629
ary	-11.0629
▁öğeler	-11.0632
▁1961	-11.0634
▁parçasıydı	-11.0635
03	-11.0636
▁destekleyici	-11.0638
▁makaleyle	-11.0639
▁ağrısı	-11.0642
▁kurumsal	-11.0643
▁buluyor	-11.0644
▁işlev	-11.0646
▁Tennessee	-11.0647
▁döngüsü	-11.0648
▁Test	-11.0648
▁pil	-11.065
▁SEÇENEK	-11.065
х	-11.0651
▁bileşeni	-11.0654
ds	-11.0655
08	-11.0656
▁Christian	-11.0657
▁kayak	-11.0659
▁getirin	-11.0659
▁Eli	-11.066
▁çapta	-11.0661
▁hapse	-11.0662
▁burayı	-11.0663
malı	-11.0665
▁arıyor	-11.0669
▁gibiydi	-11.0669
▁kaldığını	-11.067
▁cevaplama	-11.0672
▁hedefe	-11.0679
▁kitle	-11.0682
▁po	-11.0682
▁nesneler	-11.0683
▁72	-11.0686
▁adıdır	-11.0686
▁Charlotte	-11.0687
▁Phil	-11.0687
▁kaybeder	-11.0689
▁yılların	-11.0691
▁finans	-11.0691
▁ismini	-11.0691
▁kullanımına	-11.0691
▁gücünün	-11.0692
▁götürdü	-11.0693
▁Grammy	-11.0696
▁Nobel	-11.0696
▁olanlar	-11.0697
▁kalmıyor	-11.0697
▁yemin	-11.0698
▁ölümünün	-11.0699
▁Remy	-11.0701
▁Samuel	-11.0702
▁beyan	-11.0702
▁3'	-11.0703
▁Clark	-11.0704
▁belirtmektedir	-11.0707
▁açarak	-11.0709
▁tel	-11.0709
▁Hanedanı	-11.071
▁planlanan	-11.0714
▁teması	-11.0715
▁elektron	-11.0715
▁benden	-11.0718
▁blog	-11.0718
▁dersi	-11.0718
▁nemli	-11.0719
▁savaşa	-11.072
▁ilgilenen	-11.072
▁evinin	-11.0721
▁üzüntü	-11.0723
▁Rio	-11.0723
▁kule	-11.0725
▁Jon	-11.0729
▁Değilse	-11.073
▁ücreti	-11.0731
rik	-11.0735
mur	-11.0738
▁sığır	-11.074
▁taklit	-11.0742
▁Mezarlığı	-11.0742
▁66	-11.0742
▁eyaletin	-11.0744
▁klavye	-11.0746
▁Sistem	-11.0746
▁Philip	-11.0747
▁kayıtları	-11.0747
▁burası	-11.0747
▁bölümler	-11.0747
▁Aydın	-11.0748
ılır	-11.0749
▁Pensilvanya	-11.0749
dia	-11.0752
▁taşınması	-11.0755
▁kutlama	-11.0756
▁konaklama	-11.0757
▁California	-11.0757
▁Yedi	-11.0758
ıdır	-11.0758
▁sözde	-11.076
▁ihanet	-11.076
▁oldular	-11.0761
▁aldılar	-11.0764
▁konferans	-11.0766
▁planda	-11.0767
▁kararlar	-11.077
▁poz	-11.0771
▁kazandırdı	-11.0773
▁sistemin	-11.0774
car	-11.0774
▁Kurumu	-11.0775
▁seçme	-11.0776
▁Corporation	-11.0776
▁düzeni	-11.0776
▁mezar	-11.0777
▁adamla	-11.0777
▁1994'	-11.0779
▁ürüne	-11.0782
▁çılgın	-11.0782
android	-11.0783
▁(1)	-11.0785
▁Geleneksel	-11.0786
▁kaldırma	-11.0786
▁büyülü	-11.0788
all	-11.0788
▁Hüseyin	-11.0791
▁uygulamalar	-11.0791
▁geçmiştir	-11.0795
wan	-11.0796
-10	-11.0798
..."	-11.0799
▁cenaze	-11.08
▁Fort	-11.0803
▁1958	-11.0804
▁çevrili	-11.0804
▁memnuniyet	-11.0807
▁kuruluşlar	-11.0808
▁ekonomisi	-11.0809
▁arabayı	-11.0811
dos	-11.0811
▁vali	-11.0812
sur	-11.0814
▁kapsar	-11.0815
39	-11.0815
▁pası	-11.0815
▁oranları	-11.0818
▁geçit	-11.0819
▁etkiyi	-11.082
▁Şili	-11.0822
▁yapmasına	-11.0823
▁araştırıyor	-11.0826
▁ıslak	-11.0827
▁doğduğu	-11.0827
▁kısmının	-11.0828
▁Aşk	-11.0829
imiz	-11.083
▁turuncu	-11.083
-16	-11.0831
▁Ekonomi	-11.0832
▁içerip	-11.0833
▁Nelson	-11.0833
▁Tayland	-11.0835
▁Arizona	-11.0836
▁şirketinin	-11.0836
▁türlerin	-11.0839
▁Sinema	-11.0841
▁türüne	-11.0844
▁kazı	-11.0845
▁doğasını	-11.0847
▁çalma	-11.0847
laştırma	-11.0847
▁tuzlu	-11.0847
▁Parlamento	-11.0848
▁Yeniden	-11.085
▁birleştirerek	-11.0851
▁ayıralım	-11.0852
▁azalır	-11.0852
▁araştırmaya	-11.0855
46	-11.0856
▁gelmiş	-11.0857
▁bozucu	-11.0858
▁golf	-11.0859
▁Ermenistan	-11.0859
row	-11.0859
▁yapıyordu	-11.0859
▁konuş	-11.0859
Üç	-11.0861
▁kenara	-11.0862
▁Osman	-11.0865
▁çiziyor	-11.0866
▁bulduğu	-11.0867
▁hissediyor	-11.0867
gue	-11.0867
So	-11.0868
▁başarıya	-11.0869
kay	-11.087
▁üyeliği	-11.0873
▁dakikalık	-11.0874
▁State	-11.0875
Ca	-11.0875
▁manyetik	-11.0875
▁motoru	-11.0876
▁kullanması	-11.0876
▁nesnelerin	-11.0877
▁olmasından	-11.0879
▁çiftlik	-11.088
▁vuruşu	-11.0882
▁geleceği	-11.0885
▁listede	-11.0889
▁organ	-11.0889
▁yapısına	-11.0894
▁sarımsak	-11.0896
▁işkence	-11.0896
▁demokratik	-11.0902
▁görüyoruz	-11.0904
David	-11.0904
▁Bisiklet	-11.0905
▁Merhaba	-11.0905
▁ip	-11.0905
▁kalıp	-11.0905
pat	-11.0905
▁Ste	-11.0905
▁girişim	-11.0909
▁dağıtım	-11.0911
▁tesis	-11.0913
▁Konferansı	-11.0913
▁Onur	-11.0915
▁çantası	-11.0917
▁kasabasında	-11.0917
▁vaat	-11.0919
▁kavramlar	-11.0922
▁Libya	-11.0924
▁yaptılar	-11.0929
▁İrlandalı	-11.0929
▁Yanlış	-11.0929
▁sakinleri	-11.0931
▁kristal	-11.0932
▁Gal	-11.0932
bre	-11.0933
▁alfabe	-11.0934
▁günlerde	-11.094
▁lezzet	-11.0941
▁maddenin	-11.0942
▁sonuçlanır	-11.0943
▁1)	-11.0944
▁organı	-11.0944
▁gelmek	-11.0946
▁askerî	-11.0947
▁Nijerya	-11.0949
▁başını	-11.0951
▁söylendi	-11.0956
88	-11.0956
▁Hipotezi	-11.0958
▁Kanal	-11.0959
▁1946	-11.0959
▁Güneydoğu	-11.096
▁iyidir	-11.0961
▁sütunun	-11.0962
▁şablon	-11.0962
▁kayıtlı	-11.0964
▁sınav	-11.0964
▁Sean	-11.0965
▁tarihlerinde	-11.0967
▁parası	-11.0968
▁Barış	-11.0968
tim	-11.0971
38	-11.0971
▁tanıyor	-11.0971
▁ilişkiye	-11.0972
Car	-11.0973
▁teorisi	-11.0975
▁makaleye	-11.0976
▁Minnesota	-11.0976
▁Dylan	-11.0977
75	-11.0977
▁nehrin	-11.0978
▁Seattle	-11.098
▁kaldırın	-11.0982
▁üvey	-11.0984
Gerçek	-11.0985
▁etmediğini	-11.0985
▁korur	-11.099
▁Binası	-11.099
▁saatlerde	-11.0991
▁kaygı	-11.0993
▁maddi	-11.0995
▁mikro	-11.0997
▁2023'	-11.0999
▁kapıyı	-11.1001
▁Hawaii	-11.1001
ní	-11.1001
▁1945'	-11.1002
▁Çıkış	-11.1002
▁maddesi	-11.1003
▁seçeneğini	-11.1004
▁Cevabın	-11.1005
▁sıfır	-11.1005
▁pasajın	-11.1008
ali	-11.1009
▁incelemek	-11.1009
▁Dick	-11.101
1:	-11.1011
leştirilmesi	-11.1011
tay	-11.1011
▁garson	-11.1012
▁sesleri	-11.1012
▁yakalamak	-11.1012
ón	-11.1014
▁Sürecin	-11.1015
▁Amaç	-11.1018
▁Gre	-11.1018
▁ilgisiz	-11.1018
▁yasama	-11.1019
▁alüminyum	-11.1023
▁kimliğini	-11.1023
▁eleştirisi	-11.1023
▁radyasyon	-11.1025
▁uyuyor	-11.1027
л	-11.1028
▁tanesi	-11.1033
▁rahatsızlık	-11.1036
▁Ron	-11.1036
▁Bre	-11.1038
▁kanı	-11.1038
Amerikalı	-11.1038
▁senin	-11.1039
▁Bruce	-11.1039
▁katılır	-11.104
▁polisin	-11.1042
▁artırma	-11.1044
▁Sin	-11.1047
Arka	-11.1047
▁nitelendirdi	-11.1049
▁otuz	-11.1049
kor	-11.1049
▁Th	-11.1053
▁tanımlama	-11.1053
▁Gil	-11.1055
▁dinamik	-11.1056
▁Hotel	-11.1057
▁girip	-11.1058
oc	-11.1062
▁anlaşılır	-11.1062
▁dilin	-11.1063
▁etmeleri	-11.1063
cik	-11.1064
▁Stra	-11.1064
tte	-11.1064
▁müziğin	-11.1067
▁FA	-11.107
▁Dallas	-11.107
▁ülkedeki	-11.1071
▁üretme	-11.1071
▁Mont	-11.1073
▁yöntemleri	-11.1078
gerçekleştirildi	-11.1082
▁Hitler	-11.1084
▁Program	-11.1085
▁dönüştürmek	-11.1086
▁araştırmacılar	-11.1087
▁atmosfere	-11.1088
▁10.000	-11.1088
\	-11.1088
ria	-11.1088
▁Neil	-11.1089
▁Douglas	-11.1094
▁serin	-11.1097
▁nesneleri	-11.1099
▁teknikleri	-11.1099
▁örnekte	-11.1103
ل	-11.1104
▁akciğer	-11.1104
▁kalmaya	-11.1105
▁NATO	-11.1108
cevap	-11.1109
▁yaşamını	-11.1109
▁ömür	-11.1109
kara	-11.111
▁sebebiyle	-11.111
Türk	-11.1112
ib	-11.1112
▁çanta	-11.1114
▁ilinde	-11.1115
▁Norman	-11.1115
Pe	-11.1116
▁alçak	-11.1118
▁çıkacak	-11.1122
▁harfi	-11.1122
▁Josh	-11.1125
bon	-11.1126
▁göçmen	-11.1129
▁kavram	-11.113
▁kodu	-11.113
▁1954	-11.113
▁düzen	-11.1131
derecelendirmesi	-11.1132
▁cumhurbaşkanı	-11.1134
▁Emma	-11.1135
▁duydukları	-11.1137
▁içerdiği	-11.1138
▁gündem	-11.114
▁zorlukları	-11.1144
-4	-11.1145
▁kaldırıldı	-11.1149
AP	-11.115
▁Araç	-11.1151
▁başarıları	-11.1152
▁kaçırma	-11.1152
▁Kol	-11.1153
▁yapmaktan	-11.1155
▁Wall	-11.1155
postanın	-11.1156
▁yapmasını	-11.1157
▁grafik	-11.1158
▁kızgın	-11.1158
▁toplanan	-11.1159
▁1948	-11.1161
▁üzüm	-11.1161
▁kimsenin	-11.1162
▁değiştiren	-11.1165
▁seni	-11.1169
▁Kitabı	-11.1169
▁Sasha	-11.117
ec	-11.1175
gre	-11.1175
▁kimdir	-11.1175
▁subay	-11.1176
▁çarptı	-11.118
▁trans	-11.1181
▁kalori	-11.1185
45	-11.1187
house	-11.1187
▁sürüş	-11.1188
▁Kap	-11.1191
▁merdiven	-11.1192
▁şansını	-11.1193
▁neye	-11.1195
▁yüksekliği	-11.1197
▁harita	-11.1198
Merhaba	-11.1199
▁Filmde	-11.1201
▁giydiği	-11.1201
▁tarihine	-11.1202
▁türlerinin	-11.1203
▁karşılıyor	-11.1203
rah	-11.1204
▁grubuna	-11.1204
▁doğruladı	-11.1205
▁saldırısı	-11.1205
one	-11.1206
200	-11.1207
Or	-11.1211
▁potansiyeli	-11.1211
79	-11.1212
▁yapılabilir	-11.1214
▁pub	-11.1215
▁grupta	-11.1217
▁iz	-11.1218
▁dün	-11.1219
▁Işık	-11.1221
▁gürültü	-11.1222
▁Tarım	-11.1222
70	-11.1224
▁üzücü	-11.1225
▁Soğuk	-11.1225
▁maaş	-11.1225
▁pasaja	-11.1226
▁maddeleri	-11.1226
▁şeydir	-11.1228
54	-11.1228
▁planlarını	-11.1229
▁kaleci	-11.1232
▁Lise	-11.1235
▁nesneyi	-11.1236
▁kova	-11.1236
100	-11.1237
▁180	-11.1237
▁ödüller	-11.1239
▁(4	-11.124
▁aralarındaki	-11.1242
▁ziyaretçi	-11.1243
▁geçerken	-11.1243
▁fast	-11.1246
▁apartman	-11.1247
▁yeğeni	-11.1248
▁Telefon	-11.1249
▁tatlım	-11.125
▁deneyime	-11.1252
sto	-11.1253
▁hükûmeti	-11.1254
▁doğrulayın	-11.1255
▁Şirketin	-11.1255
▁Time	-11.1256
▁bırakan	-11.1256
▁Port	-11.1256
▁biliniyordu	-11.1256
▁yiyecekler	-11.1257
Ri	-11.1257
▁Silahlı	-11.1258
▁insanlardan	-11.1259
▁seslendirme	-11.126
klarında	-11.1262
▁anlaşılıyor	-11.1262
▁cins	-11.1262
nızdan	-11.1263
▁sözcük	-11.1264
mizin	-11.1265
▁birleşimi	-11.1266
▁roket	-11.1267
▁gömlekli	-11.1272
▁kullanırken	-11.1272
▁düzenlediği	-11.1275
▁onur	-11.1278
▁sinyal	-11.1278
▁Bölgesel	-11.1279
▁değişikliklerin	-11.128
▁yağı	-11.1281
▁kaynaklara	-11.1285
▁tanınıyor	-11.1285
▁öldüğünü	-11.1285
▁nereden	-11.1288
▁Mat	-11.1288
kas	-11.1291
▁Ker	-11.1291
▁şirketleri	-11.1293
▁efsanevi	-11.1293
59	-11.1294
▁emri	-11.1296
▁yetki	-11.1297
▁servisi	-11.1297
▁müzakere	-11.1298
▁Adams	-11.13
▁olmasıyla	-11.13
▁Fo	-11.1301
▁bulması	-11.1302
▁dönüşü	-11.1307
▁hazırladı	-11.1308
▁Mirası	-11.1309
▁hal	-11.131
mont	-11.1311
▁çağrı	-11.1312
▁tanımlanabilir	-11.1316
▁tutarak	-11.1317
▁demektir	-11.132
▁Cooper	-11.1322
leştirilmiştir	-11.1322
▁77	-11.1324
▁önerdi	-11.1324
▁katılımcı	-11.1325
▁Anlatıcı	-11.1326
▁öğrenim	-11.1326
▁deği	-11.1326
▁oyuna	-11.1328
▁girişi	-11.1329
▁Life	-11.1329
▁Güçlü	-11.133
▁so	-11.1332
gü	-11.1333
▁edeceğini	-11.1335
▁Mas	-11.1338
▁çıkışı	-11.1339
▁Tro	-11.1339
▁teknolojisi	-11.1341
▁gösterme	-11.1342
▁ötesine	-11.1343
▁finali	-11.1343
▁Hollandalı	-11.1344
▁değmeyeceğin	-11.1347
▁öğrenin	-11.1347
▁kardeşler	-11.1348
▁paralel	-11.1348
▁kanıtı	-11.135
▁Ram	-11.135
▁bunlara	-11.135
▁elini	-11.1352
▁sanatçının	-11.1353
▁Angela	-11.1353
lus	-11.1353
95	-11.1355
▁Vincent	-11.1355
▁Head	-11.1358
▁bildirildi	-11.1358
▁kişiyle	-11.1359
▁Turu	-11.1359
▁seviye	-11.1359
▁anlaşılmasını	-11.1359
İyi	-11.136
▁Seri	-11.1362
▁Terry	-11.1362
▁kayaların	-11.1365
▁olalım	-11.1368
▁ılık	-11.1372
▁havaalanı	-11.1375
▁kökleri	-11.1377
▁ebeveyn	-11.1378
▁özelliklerin	-11.1379
▁Stan	-11.1379
▁laboratuvar	-11.1383
▁Ünlü	-11.1383
▁Slav	-11.1384
▁deneyimler	-11.1385
▁çevresindeki	-11.1387
▁Hizmetleri	-11.1387
-15	-11.1389
▁yapılar	-11.139
▁Şerif	-11.139
ow	-11.139
▁aktarma	-11.139
▁çarpıcı	-11.1391
▁bulunma	-11.1391
▁sırası	-11.1391
▁Mag	-11.1391
▁hizmetler	-11.1394
▁Cevabınız	-11.1395
▁COVID	-11.1397
▁Filipinler	-11.1398
▁kadına	-11.14
▁Mümkün	-11.1403
▁Bunları	-11.1404
▁akıcı	-11.1405
Güney	-11.1405
▁1993'	-11.1405
hy	-11.1406
▁engeller	-11.1406
▁çiftler	-11.1407
▁çek	-11.1408
▁duydum	-11.1409
dd	-11.141
ting	-11.141
ucu	-11.141
▁gezegenin	-11.1411
▁con	-11.1412
▁yaygındır	-11.1417
▁eline	-11.1422
@	-11.1424
▁seçkin	-11.1425
olo	-11.1425
▁yönergeleri	-11.1425
▁по	-11.1427
gra	-11.1429
IC	-11.1429
▁Ata	-11.1433
ky	-11.1435
rus	-11.1437
▁kutusu	-11.1437
▁1952	-11.1439
ğa	-11.1439
kle	-11.1443
▁78	-11.1443
▁görüşme	-11.1445
▁saçlı	-11.1446
▁Lin	-11.1449
▁almıyor	-11.1449
▁Fransızcaya	-11.1451
▁duyarlı	-11.1451
nıtlanamıyorsa	-11.1454
▁Bro	-11.1455
▁değerlerin	-11.1455
▁Mei	-11.1456
▁kısaltma	-11.1457
▁yüklü	-11.1458
▁bağı	-11.1462
Paul	-11.1463
yev	-11.1463
▁koleksiyon	-11.1465
▁geçirir	-11.1465
▁Atlanta	-11.1466
▁Ross	-11.1466
▁Nor	-11.1467
05	-11.1467
▁Sally	-11.1469
ecektir	-11.1471
▁Kedi	-11.1476
▁yüzyıla	-11.1476
uyor	-11.1483
▁diğerine	-11.1493
▁koro	-11.1494
bur	-11.15
▁Filistin	-11.1505
▁ilave	-11.1506
▁bakma	-11.1506
▁tamamladıktan	-11.1506
▁kurar	-11.1506
▁artırabilir	-11.1506
▁Hükümet	-11.1507
▁Aslan	-11.1507
inizin	-11.1507
indeki	-11.1507
▁1987'	-11.1508
▁Oksijen	-11.1509
▁dengeli	-11.1509
tta	-11.151
▁fırça	-11.1513
lenmiştir	-11.1514
▁skoru	-11.1516
▁kapak	-11.1517
hem	-11.1519
Cevaplanamıyor	-11.152
▁Carol	-11.1521
▁yakalar	-11.1522
▁Avrupalı	-11.1522
56	-11.1522
▁dünyasına	-11.1523
▁muhafazakar	-11.1524
ciler	-11.1526
sson	-11.1526
▁düşüncelerini	-11.1527
▁Karar	-11.1528
▁kuşların	-11.1528
▁paranın	-11.1529
çu	-11.153
▁Patriots	-11.153
▁Yabancı	-11.1532
▁ziyareti	-11.1532
▁Konuyu	-11.1532
▁53	-11.1535
▁kumaş	-11.1538
▁üçte	-11.1539
▁Kırım	-11.1539
▁Hayal	-11.154
▁saçma	-11.154
▁yolculuğa	-11.1542
▁kupa	-11.1542
▁yaralandı	-11.1542
▁1969'	-11.1542
▁amaçlanan	-11.1542
▁ormanda	-11.1544
▁Doğa	-11.1546
▁Lake	-11.1549
sky	-11.1549
▁Julia	-11.155
▁kızları	-11.155
▁Sur	-11.1551
Star	-11.1555
mel	-11.156
▁düzenlemek	-11.1561
▁yıkama	-11.1562
▁Leon	-11.1565
tos	-11.1565
out	-11.1566
▁Ortak	-11.1567
par	-11.1568
▁seviyesi	-11.1568
▁destekliyor	-11.1569
▁tanımladığı	-11.157
▁bayan	-11.157
▁Gordon	-11.1576
▁bağlamla	-11.1579
▁parçalarını	-11.1579
lanmıştır	-11.158
▁seçeneğin	-11.1581
▁Mak	-11.1582
▁Nehir	-11.1582
▁Bon	-11.1584
▁Sel	-11.1588
▁keşfetme	-11.1588
▁Hintli	-11.1589
▁programlama	-11.1589
▁dilinin	-11.1589
▁torunu	-11.1589
▁etmekten	-11.1589
▁ölçü	-11.1592
▁inceledi	-11.1594
▁Char	-11.1594
▁getirebilir	-11.1596
▁gerekebilir	-11.1596
▁Anti	-11.1596
▁onlardan	-11.1597
▁geçirin	-11.1604
▁Gary	-11.1608
▁Nu	-11.1609
▁paylaştı	-11.161
▁Meryem	-11.1611
▁öneriyor	-11.1612
▁damla	-11.1612
▁türden	-11.1613
▁kolaylaştırmak	-11.1614
lendirilebilir	-11.1614
James	-11.1615
▁ajanı	-11.1616
▁büyüklüğü	-11.1618
fu	-11.1618
▁kesiminde	-11.162
▁etkinlikler	-11.162
▁nadiren	-11.1624
pal	-11.1624
▁sevdikleri	-11.1627
▁sorunlara	-11.1627
▁Birisi	-11.1628
▁yüzeye	-11.163
▁Ceza	-11.1635
▁Mill	-11.1639
▁listelerinde	-11.1639
boy	-11.1639
mm	-11.164
▁kazanç	-11.164
▁kabartma	-11.1641
Don	-11.1642
▁ihtiyacım	-11.1647
▁1957	-11.1647
ag	-11.1648
▁Out	-11.165
▁albümünün	-11.165
lip	-11.1651
▁girmek	-11.1652
▁eleştirel	-11.1653
▁Karadeniz	-11.1653
▁Kum	-11.1653
▁teknolojik	-11.1654
▁köyünün	-11.1654
▁mağazası	-11.1654
▁asistan	-11.1656
▁virüs	-11.1657
▁yapıları	-11.1658
ves	-11.1659
▁Tibet	-11.166
▁birbirinden	-11.166
▁sırayla	-11.1661
▁malzemelerin	-11.1661
▁Polonyalı	-11.1664
ste	-11.1664
▁etkin	-11.1665
▁North	-11.1666
ril	-11.1667
yol	-11.1668
▁bayrağı	-11.167
▁kalkınma	-11.1671
laş	-11.1674
▁güçlerini	-11.1676
▁Kanun	-11.1677
bul	-11.1678
▁metindeki	-11.1679
34	-11.168
lanacak	-11.1681
▁görüşe	-11.1681
meyi	-11.1683
▁tüketici	-11.1684
▁idare	-11.1685
ılan	-11.1686
▁kolaydır	-11.1688
▁Town	-11.1689
miyor	-11.169
▁es	-11.1691
▁cevabınızı	-11.1693
▁kılan	-11.1693
▁Sudan	-11.1693
▁Metro	-11.1694
▁arttıkça	-11.1695
▁toplayın	-11.1695
▁anlayışı	-11.1695
luğa	-11.1696
▁programını	-11.1698
Sen	-11.1699
▁Barry	-11.1699
gor	-11.1699
▁karıştırıcı	-11.17
liğinin	-11.1701
▁doğmuştur	-11.1701
▁hayatında	-11.1701
▁etmedi	-11.1703
▁Ji	-11.1704
▁tepe	-11.1704
stan	-11.1705
▁öldürmek	-11.1706
▁Night	-11.1707
▁türlerini	-11.171
▁etmişti	-11.171
▁tarz	-11.1711
ğini	-11.1713
▁eklendi	-11.1713
▁tanıtım	-11.1716
▁karşılamak	-11.1716
söz	-11.1716
▁sunuldu	-11.1716
Rusça	-11.1717
▁tekniği	-11.1719
▁göstergesi	-11.1719
▁İncelemede	-11.172
▁Antalya	-11.1722
▁Beni	-11.1722
▁türde	-11.1724
abiliyor	-11.1724
▁dönük	-11.1724
▁Cal	-11.1727
▁bitkinin	-11.1728
▁forması	-11.173
▁aşağıya	-11.1731
▁kulübe	-11.1732
düğünü	-11.1732
▁yarıda	-11.1733
▁yönetmek	-11.1735
Yanıtlanamaz	-11.1743
dağ	-11.1744
▁şarj	-11.1746
▁hacmi	-11.1747
▁söylediğini	-11.175
▁Jonathan	-11.1751
▁Ted	-11.1752
▁sınıfa	-11.1752
▁randevu	-11.1752
▁geçin	-11.1753
▁toplamı	-11.1753
altı	-11.1753
▁yardıma	-11.1754
▁neşeli	-11.1756
▁1953	-11.1757
▁istiyorlar	-11.1762
▁aracın	-11.1762
▁programının	-11.1763
▁Kale	-11.1764
▁olurken	-11.1765
og	-11.1766
kü	-11.177
41	-11.1773
nizden	-11.1778
▁koştu	-11.1778
▁Ly	-11.178
▁kıyafetler	-11.1782
▁bağımsızlığını	-11.1784
▁anlatılan	-11.1785
▁diğerlerinin	-11.1787
▁açıklayıcı	-11.1789
▁kalmadı	-11.1789
▁istedim	-11.1789
▁Herkes	-11.179
▁(15	-11.179
▁kurban	-11.1791
▁açıklamaya	-11.1792
92	-11.1794
giller	-11.1795
▁2)	-11.1795
▁çöl	-11.1795
▁Kazakistan	-11.1795
▁sonuçlara	-11.1795
▁mühendislik	-11.1795
▁tehlikeye	-11.1796
▁hikâye	-11.1797
▁aşaması	-11.1797
▁muhabir	-11.1797
▁taraftan	-11.1801
▁Wayne	-11.1801
▁sevgilisi	-11.1803
▁2024'	-11.1804
tri	-11.1805
Bugün	-11.1805
▁Bobby	-11.181
▁geceleri	-11.1812
▁ailesini	-11.1812
▁kullanılmış	-11.1816
▁basıncı	-11.1819
▁eleman	-11.182
▁okuyor	-11.1821
▁kağıdı	-11.1822
▁koleksiyonu	-11.1823
▁Meydanı	-11.1823
▁etmekle	-11.1824
▁kulübün	-11.1825
üyor	-11.1825
▁reddediyor	-11.1826
▁garip	-11.1826
▁çevrilen	-11.1826
kol	-11.1827
▁işgali	-11.1827
▁Der	-11.1828
▁(17	-11.1828
▁başbakan	-11.1829
▁pasta	-11.1831
▁Formula	-11.1832
▁motosiklet	-11.1832
▁Ladin	-11.1835
Kan	-11.1837
▁Bank	-11.184
▁ateşli	-11.1841
▁çıkmış	-11.1843
▁Köpek	-11.1849
▁She	-11.185
▁temelini	-11.1851
▁Gazete	-11.1855
▁komuta	-11.1856
▁1968'	-11.1857
▁Sydney	-11.1857
▁yoksul	-11.1857
▁memnuniyeti	-11.1858
▁fiyatları	-11.1862
▁erişilebilir	-11.1862
ılabilir	-11.1863
▁Mil	-11.1864
▁hayranı	-11.1865
▁Ekonomik	-11.1865
▁açıklanan	-11.1865
▁birimleri	-11.1866
▁Gri	-11.1867
▁izleyicileri	-11.1867
▁Makalede	-11.1872
▁televizyonda	-11.1874
set	-11.1875
▁(16	-11.1875
▁Proje	-11.1878
▁bekleyen	-11.188
▁tasarlandı	-11.1881
82	-11.1881
▁Lincoln	-11.1881
▁karısının	-11.1882
▁tohum	-11.1883
bank	-11.1884
▁bölgesinden	-11.1886
▁almanın	-11.1887
▁çağrısında	-11.1888
▁Oxford	-11.1888
▁araştırmacı	-11.1888
▁Anayasa	-11.1889
▁Model	-11.189
▁çektiği	-11.1895
▁göreviniz	-11.1898
▁merkezidir	-11.1899
▁şifre	-11.1899
▁yaptım	-11.1902
▁kenarındaki	-11.1902
▁bağlar	-11.1904
▁katlı	-11.1904
▁hakaret	-11.1904
▁izleyen	-11.1905
▁değişikliğinden	-11.1905
▁Sabah	-11.1906
▁yay	-11.1906
ince	-11.1909
▁yapıp	-11.191
▁sevdiğiniz	-11.1914
▁geçiriyor	-11.1914
▁boşa	-11.1917
▁Warner	-11.1917
-7	-11.1918
▁menajeri	-11.1918
▁faiz	-11.1918
▁—	-11.1918
▁zorla	-11.1922
yr	-11.1922
▁Münih	-11.1922
▁Amatör	-11.1925
▁akademisyen	-11.1927
▁Golden	-11.193
▁kaydedilen	-11.193
gir	-11.1931
▁Suç	-11.1931
▁vurguladı	-11.1931
apamıyorsanız	-11.1932
▁baraj	-11.1933
vet	-11.1934
27	-11.1934
ikinci	-11.1935
▁İletişim	-11.1938
mızın	-11.1939
▁filmdeki	-11.194
layacak	-11.194
▁giriyorum	-11.1944
ari	-11.1945
▁seçimler	-11.1946
▁Grant	-11.1947
▁incelemede	-11.1952
▁Hamilton	-11.1953
▁verildiği	-11.1957
94	-11.1962
43	-11.1962
▁alanındaki	-11.1966
▁uzanır	-11.1966
▁davası	-11.1966
▁sağlamaz	-11.1967
▁Çalışmaları	-11.1967
▁Pra	-11.1968
kes	-11.1969
less	-11.1977
▁alfabetik	-11.1978
▁Antonio	-11.198
▁ordusunun	-11.1981
lısınız	-11.1983
▁hatalı	-11.1985
▁1944	-11.1987
bol	-11.1988
▁Cole	-11.1989
▁hayatlarını	-11.1989
▁gençler	-11.1991
▁alet	-11.1991
▁hip	-11.1991
▁kendileri	-11.1992
▁vizyona	-11.1993
landığını	-11.1993
▁İçerik	-11.1993
▁Buradaki	-11.1994
▁değiştirerek	-11.1996
Beyaz	-11.1997
tör	-11.1998
▁1982'	-11.2
▁Bağlamı	-11.2
ы	-11.2
▁devrim	-11.2001
▁yansıtan	-11.2003
▁liderleri	-11.2003
▁okuldan	-11.2003
▁Chelsea	-11.2003
▁bulurlar	-11.2005
▁musunuz	-11.2005
laştırılması	-11.2006
cker	-11.2006
▁öldürme	-11.2006
▁Lang	-11.2007
▁odaklanma	-11.2007
▁fotosentez	-11.2008
▁birleşik	-11.2008
▁şeklindedir	-11.2011
lamış	-11.2011
ses	-11.2011
▁Gel	-11.2011
▁Yugoslavya	-11.2013
sia	-11.2015
▁zarfında	-11.2016
Hersek	-11.2017
▁Aşağı	-11.2017
▁ayna	-11.202
▁hamle	-11.2022
▁Üyesi	-11.2023
▁kolaylıkla	-11.2029
▁mutsuz	-11.2029
▁Serbest	-11.2031
▁tasarlanan	-11.2033
▁bulan	-11.2034
iti	-11.2035
▁duyu	-11.2036
▁karaciğer	-11.2036
▁plaj	-11.2038
▁şehirler	-11.2038
▁korkutucu	-11.2039
▁oradan	-11.204
▁senarist	-11.2041
▁üzeri	-11.2043
▁alanlarını	-11.2047
▁kurumlar	-11.2048
▁yargıç	-11.2053
▁aktiviteler	-11.2053
▁ayrılma	-11.2054
▁denklemini	-11.2054
▁öykü	-11.2054
mik	-11.2055
▁Villa	-11.2057
▁bölme	-11.2058
elli	-11.2059
ilir	-11.2062
▁yazıları	-11.2064
▁firması	-11.2066
7'	-11.207
▁Bol	-11.2073
▁oynarken	-11.2073
▁Hizmet	-11.2074
▁müşterilerin	-11.2075
pur	-11.2075
▁Kızılderili	-11.2076
non	-11.2084
Ali	-11.2086
▁Eş	-11.2087
▁özerk	-11.209
▁Die	-11.2091
▁renkleri	-11.2091
▁endüstrisi	-11.2092
▁Linda	-11.2093
▁ağaçların	-11.2095
▁açıklamak	-11.2095
▁Lady	-11.2096
▁1988'	-11.2096
#	-11.2097
▁School	-11.2098
▁Ian	-11.2098
▁yöne	-11.2098
▁başkalarıyla	-11.2099
▁ayağa	-11.2103
▁güzelce	-11.2104
▁yarıştı	-11.2105
▁esnek	-11.2105
istan	-11.2108
▁DJ	-11.2109
dom	-11.2112
▁izlenim	-11.2112
▁sayısına	-11.2113
▁yorumlar	-11.2113
▁Harvard	-11.2113
▁çalışmalarının	-11.2115
dıklarını	-11.2115
▁parçasını	-11.2116
▁Eddie	-11.2116
Tom	-11.2121
Po	-11.2125
▁görüşmesi	-11.2126
▁herkesi	-11.2127
▁madeni	-11.2127
AS	-11.2127
▁kadrosunda	-11.2127
▁inanıyorum	-11.2131
▁çifti	-11.2132
30'	-11.2132
▁iğne	-11.2134
tsu	-11.2134
▁kirliliği	-11.2135
▁Kullanıcının	-11.2139
eddin	-11.2139
}	-11.2141
▁Albay	-11.2143
▁aşina	-11.2143
▁belirtilmemiş	-11.2147
star	-11.2148
▁ifadelerin	-11.2149
rim	-11.2153
▁resimler	-11.2153
▁güneyde	-11.2153
▁başladığını	-11.2153
▁durumlar	-11.2155
▁yap	-11.2157
▁sitesinde	-11.2159
▁sonuçlanan	-11.2159
▁Mississippi	-11.2159
▁Hans	-11.2161
▁kaldır	-11.2161
SE	-11.2165
▁oturup	-11.2169
▁hakem	-11.2169
▁başladılar	-11.217
▁hangisinin	-11.217
▁Onlara	-11.217
▁Musa	-11.2172
▁Jenny	-11.2172
▁verimliliği	-11.2174
▁mağara	-11.2174
▁sözler	-11.2174
▁68	-11.2175
ılması	-11.2176
▁temizlemek	-11.2178
▁ayının	-11.2179
Bar	-11.218
▁gidin	-11.2181
▁dönmesi	-11.2182
▁şef	-11.2186
▁anlamaya	-11.2188
▁giderler	-11.2188
▁soruyla	-11.219
▁tamamlayan	-11.2194
▁gönderilen	-11.2194
▁terimdir	-11.2195
▁Estonya	-11.2195
600	-11.2196
▁Yaygın	-11.2196
Go	-11.2199
▁tutmaya	-11.22
RA	-11.2203
▁tarihçi	-11.2203
▁atmasıyla	-11.2205
▁Gazi	-11.2206
Bilgi	-11.2207
▁Phoenix	-11.221
▁(6	-11.2211
▁ha	-11.2212
▁iPhone	-11.2212
-20	-11.2217
▁South	-11.2217
▁çıkarılması	-11.2218
▁ihmal	-11.2218
▁olaylara	-11.2219
tam	-11.2219
Türkçe	-11.2221
▁yarışan	-11.2222
▁yaşadıkları	-11.2224
▁kitabında	-11.2224
▁For	-11.2226
▁1,5	-11.2228
▁operasyon	-11.2229
▁Şarkının	-11.2229
▁yazınız	-11.223
Br	-11.223
▁İçişleri	-11.2231
▁gidecek	-11.2231
▁somut	-11.2231
▁cevabının	-11.2232
▁boyun	-11.2233
2:	-11.2233
▁birlikleri	-11.2235
lia	-11.2237
▁Metni	-11.2237
tch	-11.2238
▁yörünge	-11.2238
▁direnç	-11.224
sem	-11.2242
▁ekibinin	-11.2244
ett	-11.2246
▁çalışmaktadır	-11.2247
▁Ten	-11.2247
▁Geç	-11.2248
▁sınıfta	-11.2248
▁Resim	-11.2248
Büyü	-11.2249
lediği	-11.2249
Kedi	-11.2252
uş	-11.2252
▁Barbara	-11.2257
▁ayrıntılara	-11.2258
▁şirketlerin	-11.2259
ato	-11.2259
▁Sanayi	-11.226
▁kimi	-11.2263
▁kaplama	-11.2263
▁refahı	-11.2264
▁anlatımı	-11.2265
▁kitabını	-11.2265
ise	-11.2266
▁etse	-11.2268
▁mirası	-11.2268
▁füze	-11.227
▁artı	-11.2271
▁58	-11.2271
го	-11.2272
▁uzmanlaşmış	-11.2273
▁ebeveynlerinin	-11.2276
▁şüphesiz	-11.2277
▁endişelerini	-11.2279
▁Fas	-11.2279
▁finalinde	-11.2282
72	-11.2282
▁sevdiğim	-11.2285
▁eylemini	-11.2287
▁1979'	-11.2287
▁keşfetti	-11.2288
▁ft	-11.2288
▁çalışanı	-11.229
ić	-11.229
▁dilim	-11.2292
▁dünyası	-11.2292
▁63	-11.2293
▁ticareti	-11.2295
▁Lübnan	-11.2295
▁1978'	-11.2297
▁zincir	-11.2299
▁Thompson	-11.23
▁sürülen	-11.2302
▁dizisinin	-11.2302
▁erkeğin	-11.2304
▁yapıya	-11.2304
▁endüstri	-11.2305
▁edinme	-11.2306
▁Graham	-11.2307
▁koloni	-11.2308
▁yetkili	-11.2309
▁Gençler	-11.231
▁temaları	-11.2312
▁1986'	-11.2314
▁Prenses	-11.2315
▁(12	-11.2316
▁Sky	-11.2316
▁düşünmek	-11.2317
yabilir	-11.2318
▁47,5	-11.2321
▁sanatları	-11.2321
но	-11.2325
▁birim	-11.2327
▁dedektif	-11.2328
▁çıktığında	-11.233
▁East	-11.2331
▁komplo	-11.2332
▁çalar	-11.2335
▁kalmayı	-11.2336
▁fakir	-11.2338
ž	-11.2342
cak	-11.2343
▁olduğum	-11.2343
▁öğelerin	-11.2344
Sunulan	-11.2346
▁Ü	-11.2347
▁denen	-11.2348
▁gelişimini	-11.2349
▁artırıyor	-11.2351
▁1977'	-11.2353
ms	-11.2358
Sürecin	-11.2359
zirveye	-11.2361
vy	-11.2363
▁diz	-11.2364
▁babasını	-11.2368
▁hedefleri	-11.2372
▁toplar	-11.2373
▁Riley	-11.2373
▁paylaşma	-11.2374
▁hükümdarı	-11.2375
▁işlerini	-11.2375
▁Litvanya	-11.2376
▁Demiryolu	-11.2376
▁Odası	-11.2378
gun	-11.2378
▁hareketleri	-11.2379
pel	-11.2379
▁filmindeki	-11.238
▁varış	-11.2381
▁Mason	-11.2381
è	-11.2382
▁bazlı	-11.2383
▁(18,7	-11.2383
kla	-11.2384
▁Madalyası	-11.2384
▁Elbette	-11.2385
Jo	-11.2386
▁rekorunu	-11.239
▁birbirlerini	-11.239
▁uyu	-11.239
▁ilgiliydi	-11.239
ınızı	-11.239
▁hissetme	-11.2391
▁organizma	-11.2392
▁Kudüs	-11.2393
▁budur	-11.2396
▁rahip	-11.2397
▁oluşturmaya	-11.2397
lif	-11.2399
▁hazine	-11.2399
1,	-11.2401
tasyon	-11.2401
▁yapılıyor	-11.2403
▁Metnin	-11.2404
▁ilişkilendiril	-11.2404
tığı	-11.2404
▁ortalaması	-11.2404
▁NO	-11.2405
mdan	-11.2409
▁21.	-11.2412
▁sabahı	-11.2413
▁adanın	-11.2414
▁özgün	-11.2415
▁kaynakların	-11.2419
▁bakalım	-11.2421
▁Kazan	-11.2422
▁Yağmur	-11.2426
▁hazırlanmış	-11.2426
www	-11.2427
▁Savaşları	-11.2427
▁siyasetçidir	-11.2432
AL	-11.2434
▁bazılarının	-11.2434
▁atılan	-11.2435
▁imparator	-11.2437
▁simgesi	-11.2439
lor	-11.2443
say	-11.2444
▁örtüsü	-11.2444
▁mesleki	-11.2445
eş	-11.2445
ding	-11.2446
▁kadrosu	-11.2448
▁işlemler	-11.2449
▁gerektiriyor	-11.2451
▁sahada	-11.2452
▁disiplin	-11.2453
▁Kurtuluş	-11.2453
gerçekleştirdiği	-11.2453
lenerek	-11.2455
▁Tasarım	-11.2456
▁arabaya	-11.2456
likleri	-11.2462
Pi	-11.2462
geliştirilmesine	-11.2464
▁eylemlerinin	-11.2464
▁sınıflandırmak	-11.2464
▁Kürt	-11.2465
▁pürüzsüz	-11.2465
5'	-11.2467
Ay	-11.2467
▁Pla	-11.2468
▁tanımlanır	-11.2468
▁Band	-11.2468
▁Toprak	-11.2469
▁çeşitliliği	-11.2469
▁yazıdan	-11.247
▁ceket	-11.247
ble	-11.247
▁ilahi	-11.2474
Ja	-11.2475
▁tanımını	-11.2476
dık	-11.2477
▁planını	-11.2477
▁havayı	-11.2477
▁okuyan	-11.2479
▁mücevher	-11.2481
▁yazmıştır	-11.2483
▁gerekçesiyle	-11.2484
▁öğrendim	-11.2485
▁yoğurt	-11.2485
▁enfeksiyon	-11.2492
▁nüfusa	-11.2494
▁evini	-11.2496
س	-11.2496
▁sanatçılar	-11.2499
▁Hart	-11.2499
▁Juan	-11.2499
▁kapasitesi	-11.2502
▁filmlerde	-11.2504
▁yerin	-11.2504
▁bağırsak	-11.2506
▁1951	-11.2507
▁katılıyor	-11.2507
nis	-11.2507
▁Betty	-11.2508
die	-11.2508
▁Prusya	-11.2508
▁akan	-11.2508
▁Kontrol	-11.2509
▁ayrım	-11.251
▁portakal	-11.251
▁bebeği	-11.2511
▁manzara	-11.2512
▁Valisi	-11.2516
▁hepimiz	-11.2516
▁çıkaracak	-11.2516
▁özetini	-11.2517
ori	-11.2517
▁arkadaşlarına	-11.2518
Öncelikle	-11.2519
▁Öncülün	-11.2524
▁buluşma	-11.2525
▁ittifak	-11.2528
▁Cook	-11.2528
▁gelmiyor	-11.2529
▁yürürlüğ	-11.2529
▁deneyimli	-11.253
lendirme	-11.253
▁0'	-11.2532
▁başladım	-11.2533
▁WR	-11.2534
▁İskender	-11.2535
▁que	-11.2535
▁sanatçıların	-11.2539
▁uyan	-11.254
▁Sorum	-11.2542
▁sahasında	-11.2542
▁İmparatorluk	-11.2544
▁tortu	-11.2545
qua	-11.2545
▁oynamayı	-11.2546
▁gerçekleri	-11.2546
▁kullanıcılar	-11.2547
▁Onları	-11.2547
▁sesler	-11.2547
▁süreliğine	-11.2547
▁bileşen	-11.2548
▁yiyor	-11.2548
▁şuradan	-11.2549
й	-11.255
▁Diyarbakır	-11.2552
▁oylama	-11.2552
▁yakalama	-11.2553
▁kırık	-11.2553
▁okumaya	-11.2554
▁görüşleri	-11.2554
▁tepkisi	-11.2556
▁Hayat	-11.2557
-12	-11.2558
▁fırına	-11.2558
▁yiyecekleri	-11.2561
▁karabiber	-11.2562
▁uygunsuz	-11.2563
▁izlerken	-11.2564
lle	-11.2565
▁Sanatlar	-11.2567
ns	-11.2568
▁Cami	-11.257
▁empati	-11.2576
▁Dağ	-11.2576
▁bağımsızlık	-11.2576
▁beklentileri	-11.2577
▁Salonu	-11.2579
▁başkanlığını	-11.2582
▁anket	-11.2583
▁stadyum	-11.2583
▁şeklini	-11.2583
▁koyar	-11.2584
▁ihtiyacını	-11.2585
▁komutun	-11.2585
▁kaçmak	-11.2585
▁programına	-11.2585
▁Sahne	-11.2587
▁ödünç	-11.2588
▁ızgara	-11.2588
▁set	-11.2589
fra	-11.259
▁çevreye	-11.2591
▁Durum	-11.2591
Kim	-11.2592
▁sıkıntı	-11.2593
▁değiştirilmiş	-11.2597
▁Alternatif	-11.2597
▁inşası	-11.2598
▁Mad	-11.2599
▁yukarıda	-11.2599
▁markası	-11.2599
▁Win	-11.2601
▁Sınıf	-11.2603
▁Porto	-11.2604
▁Lan	-11.2604
▁olasılıkları	-11.2608
▁kaçış	-11.2609
▁müziğinin	-11.261
▁fotoğrafçı	-11.2611
oto	-11.2611
ж	-11.2611
▁faaliyetlerini	-11.2612
▁görünüşe	-11.2615
▁alanın	-11.2617
▁Brad	-11.2617
▁Opera	-11.2618
▁by	-11.262
▁kadınlara	-11.262
▁yerçekimi	-11.2621
▁dokuzuncu	-11.2621
▁kesici	-11.2621
▁mezunudur	-11.2622
▁Yarış	-11.2625
▁Klasik	-11.2625
▁tarama	-11.263
▁araştırmak	-11.263
▁Çoğunlukla	-11.263
▁tedirginliğin	-11.2631
▁edilecek	-11.2633
▁değişebilir	-11.2634
▁düşünür	-11.2635
▁Sim	-11.2635
▁Parker	-11.2635
sil	-11.2635
▁albümünü	-11.2635
▁Yukarı	-11.2636
▁kampanyası	-11.264
▁olduğumu	-11.264
▁muazzam	-11.2641
▁girmesi	-11.2642
▁Silah	-11.2645
vor	-11.2645
oh	-11.2647
▁yarışmasında	-11.2647
▁hatırlama	-11.265
▁korudu	-11.2653
▁sürüm	-11.2653
▁ruhu	-11.2654
sy	-11.2656
-5	-11.2657
Fe	-11.2658
▁misafir	-11.266
Öğrenci	-11.266
▁zarif	-11.266
para	-11.2661
▁kokusu	-11.2661
▁kıdemli	-11.2661
▁şık	-11.2661
▁sekizinci	-11.2661
▁ürettiği	-11.2663
▁Süleyman	-11.2664
▁zirve	-11.2669
▁bağları	-11.2669
▁çamaşır	-11.267
birbirlerinin	-11.2671
▁öğrencilere	-11.2671
dem	-11.2672
▁siz	-11.2672
▁Colorado	-11.2673
▁Liberal	-11.2673
▁Millet	-11.2673
Ho	-11.2675
▁ilaçlar	-11.2675
ire	-11.2676
Je	-11.2676
▁cümlelerin	-11.2678
▁kendisiyle	-11.2678
key	-11.268
▁hastası	-11.2681
▁1967'	-11.2685
▁yönetme	-11.2686
▁olaydan	-11.2688
▁Belediyespor	-11.2689
▁kurulması	-11.269
▁versiyonunu	-11.269
▁üssü	-11.2691
▁giyme	-11.2692
▁iyileştirilmesi	-11.2692
▁incelenmesi	-11.2692
▁tutam	-11.2694
▁ölçekli	-11.2696
▁bez	-11.2696
▁talebi	-11.2696
▁kenar	-11.2697
▁şirketidir	-11.2698
SS	-11.2699
▁tuğla	-11.2699
▁hareketle	-11.2701
▁Prof	-11.2701
▁kararını	-11.2702
▁kütlesi	-11.2703
▁sever	-11.2704
▁olgun	-11.2706
kale	-11.2707
▁fa	-11.2707
83	-11.2708
▁biten	-11.2709
▁entelektüel	-11.2712
▁и	-11.2716
▁adamlarının	-11.2717
▁ismin	-11.2717
▁form	-11.2719
▁koruyor	-11.2721
▁döneminin	-11.2721
ıldı	-11.2722
▁kategorisinde	-11.2722
▁bandı	-11.2723
▁Rice	-11.2726
▁parçacıklar	-11.273
▁1983'	-11.2731
▁Dean	-11.2732
▁kocasının	-11.2733
▁Hay	-11.2734
▁Bilgiler	-11.2736
▁Elektrik	-11.2737
yin	-11.274
sti	-11.274
ر	-11.2743
▁Yo	-11.2744
▁cadde	-11.2745
▁ifadedir	-11.2746
ug	-11.2747
▁Kaide	-11.2747
▁İsveçli	-11.275
▁anlamlarını	-11.2751
▁çiçekler	-11.2752
▁biriyle	-11.2753
▁tanıdık	-11.2755
▁doğmuş	-11.2756
▁sanırım	-11.2758
▁üslup	-11.2758
▁1974'	-11.2759
▁sahipleri	-11.2759
▁Sanırım	-11.276
▁oran	-11.2761
▁idrar	-11.2761
▁sonunu	-11.2763
▁Bio	-11.2764
▁albümünde	-11.2765
▁yanlısı	-11.2765
ning	-11.2766
cal	-11.2766
af	-11.2771
▁özelliklerine	-11.2775
ET	-11.2775
▁bileşenler	-11.2776
SA	-11.2777
▁kenti	-11.2777
▁hayranlık	-11.2778
▁Kariyer	-11.2778
▁Sony	-11.2779
▁görünüşte	-11.278
▁çocuklarının	-11.278
rs	-11.2781
▁reform	-11.2783
▁yeteneğine	-11.2786
▁Margaret	-11.2786
▁Kastamonu	-11.2788
▁hatırla	-11.279
▁suyunu	-11.279
▁Hızlı	-11.2791
▁Beatles	-11.2791
war	-11.2792
▁nüfuz	-11.2793
▁gösterişli	-11.2794
▁kullandığını	-11.2797
We	-11.2797
▁payı	-11.2798
▁askerler	-11.2799
▁CIA	-11.2801
▁tartışmak	-11.2802
▁Bina	-11.2806
▁%1	-11.2807
orta	-11.2807
şehir	-11.2807
▁Little	-11.2808
▁bağlandı	-11.2811
▁düşünülmektedir	-11.2811
▁Em	-11.2814
▁Kendall	-11.2816
▁bölümünün	-11.282
▁rolleri	-11.2821
▁und	-11.2821
▁normalde	-11.2821
▁söyleniyor	-11.2822
▁Koç	-11.2822
▁döneme	-11.2823
▁Kulesi	-11.2825
ert	-11.2827
▁ikiz	-11.2827
▁senaryoda	-11.2829
▁kaynaklardan	-11.2832
▁üniversiteye	-11.2832
▁umuyor	-11.2832
ado	-11.2833
▁uzmanları	-11.2834
▁dergisinde	-11.2834
▁odada	-11.2835
▁Mur	-11.2836
▁Orleans	-11.2838
▁başlaması	-11.2838
ani	-11.2838
tak	-11.2839
söylemek	-11.284
esi	-11.284
abileceğini	-11.2842
ш	-11.2843
▁gençlerin	-11.2843
▁refah	-11.2844
▁partiye	-11.2847
▁üstüne	-11.2847
▁1985'	-11.2847
▁büyümeye	-11.2848
▁resimleri	-11.2849
▁zamir	-11.2851
▁sunulur	-11.2851
ime	-11.2851
▁bilgilerini	-11.2851
▁volkanik	-11.2852
▁azaltma	-11.2853
▁mühendisliği	-11.2853
▁bozukluğu	-11.2853
▁Beach	-11.2853
▁açılıyor	-11.2856
▁ebeveynler	-11.2856
leşmiş	-11.2857
▁Ok	-11.286
▁aydınlatma	-11.2865
▁tören	-11.2865
▁zaferi	-11.2865
▁76	-11.2866
▁maddelerin	-11.2866
▁2025	-11.2868
▁kullanımının	-11.2868
▁görüntüleri	-11.2868
▁Wei	-11.2871
▁Zamanla	-11.2872
▁doktoru	-11.2875
ebileceğini	-11.2875
▁oyu	-11.2876
▁kablo	-11.2876
▁atlıyor	-11.2876
▁Alp	-11.2876
▁komutasındaki	-11.2879
▁Road	-11.2879
▁zu	-11.2879
vu	-11.288
▁çoğul	-11.2881
rol	-11.2885
|	-11.2888
▁gitmeyi	-11.2888
▁sorumluluğu	-11.2889
▁keşfi	-11.289
▁tablosu	-11.289
▁bakır	-11.2892
▁kayalar	-11.2894
▁enerjiyi	-11.2894
▁akılda	-11.2896
▁inanan	-11.2896
▁tersi	-11.2896
▁Fen	-11.2899
▁kısımlarını	-11.2901
Har	-11.2904
▁sisteminde	-11.2904
▁yayılan	-11.2905
▁vi	-11.2905
▁İddia	-11.2906
▁üçü	-11.2908
▁evlenme	-11.291
▁Samsun	-11.291
▁1976'	-11.291
▁Sev	-11.2911
▁halı	-11.2912
▁atıldı	-11.2913
yecek	-11.2917
sor	-11.2921
▁durma	-11.2921
▁tartışmalar	-11.2921
▁Kra	-11.2922
▁golünü	-11.2923
▁izleyerek	-11.2925
▁merkezleri	-11.2926
▁turistik	-11.2926
▁işine	-11.2928
▁Başarılı	-11.2929
▁kaçmaya	-11.2929
Can	-11.293
ف	-11.2931
▁ürünlerin	-11.2934
▁Maya	-11.2934
bes	-11.2934
▁bulduğunu	-11.2936
▁hazırlanıyor	-11.2937
▁komünist	-11.2938
▁öğrenmeye	-11.2938
ence	-11.2938
▁Hy	-11.294
▁engellemek	-11.2941
▁bitti	-11.2941
▁oyuncusudur	-11.2941
▁dizide	-11.2943
▁şarkısının	-11.2945
▁kelimelerle	-11.2945
▁gönderilir	-11.2945
▁olacaktı	-11.2947
▁Varlık	-11.2948
▁Biz	-11.2949
▁peşinde	-11.2949
▁Malezya	-11.295
▁dansçı	-11.295
ast	-11.2952
на	-11.2953
▁1981'	-11.2953
▁kırdı	-11.2953
▁filozof	-11.2953
▁alev	-11.2955
▁dayanıklılık	-11.2956
▁muhalefet	-11.2957
▁mineral	-11.2958
▁yakalanma	-11.2958
▁vücudu	-11.2961
▁Gray	-11.2961
▁çarpan	-11.2962
▁arayüzü	-11.2963
▁inançları	-11.2964
kur	-11.2964
ğınızda	-11.2964
▁toprağa	-11.2965
▁öldürülen	-11.2966
▁meşru	-11.2967
name	-11.2968
▁hep	-11.2968
▁başarısını	-11.2972
mü	-11.2972
▁düşme	-11.2973
▁Seçilen	-11.2973
▁High	-11.2975
▁indirme	-11.2976
400	-11.2976
▁Hunter	-11.2976
▁yürüyen	-11.2979
▁büyümesine	-11.2979
▁1972'	-11.2979
▁Kom	-11.2982
▁Çanakkale	-11.2982
▁antrenörü	-11.2983
▁durumları	-11.2984
Katılım	-11.2985
▁dalgalar	-11.2985
▁Fil	-11.2986
▁pilotu	-11.2987
▁Moğol	-11.2987
▁özünü	-11.2988
bek	-11.2989
Fransızca	-11.2992
▁Gök	-11.2992
kh	-11.2993
bak	-11.2994
▁kelimeden	-11.2996
▁EST	-11.2996
▁bölümden	-11.2997
▁karışımını	-11.3
lendiği	-11.3001
▁Motor	-11.3001
▁çığlık	-11.3003
▁kurallarını	-11.3003
▁fotoğrafı	-11.3004
▁turist	-11.3005
▁Swift	-11.3006
▁Samsung	-11.301
▁İçeriği	-11.3011
▁Tamil	-11.3012
▁karşılandı	-11.3013
▁85	-11.3013
▁metropol	-11.3015
tiv	-11.3016
▁ürünle	-11.3018
▁Bayramı	-11.3019
▁600	-11.3022
▁Good	-11.3022
▁rutin	-11.3024
▁ediyoruz	-11.3025
rick	-11.3025
▁du	-11.3025
▁estetik	-11.3026
▁simge	-11.3027
PA	-11.3027
▁yönetiminin	-11.3028
▁peşinden	-11.303
▁üründen	-11.303
▁Wal	-11.303
▁Bad	-11.3032
▁karışım	-11.3032
Mu	-11.3032
▁vakti	-11.3033
▁birisidir	-11.3034
▁görevli	-11.3035
▁Hey	-11.3036
▁olduğunun	-11.3036
ies	-11.3037
▁hemşire	-11.3037
▁içeriğine	-11.3038
tiği	-11.3038
▁duş	-11.3038
▁evrim	-11.3039
▁Sri	-11.304
▁kasabada	-11.3042
▁filmlerinde	-11.3043
▁girdiğinde	-11.3044
▁NASA	-11.3047
Ancak	-11.3048
▁avlanma	-11.3049
▁kasırga	-11.3049
▁cephe	-11.3049
▁Konum	-11.3053
▁vücuda	-11.3053
▁Peru	-11.3053
▁Programı	-11.3053
gil	-11.3057
▁etmektir	-11.3057
▁paketi	-11.3057
▁anlatım	-11.3057
▁sayımında	-11.306
▁bölgeler	-11.3061
sp	-11.3063
ли	-11.3063
DA	-11.3063
yeceğini	-11.3067
▁Demografi	-11.3067
▁1947	-11.3067
tum	-11.3068
▁dinleme	-11.3076
▁günkü	-11.3078
▁etiketini	-11.3078
adım	-11.308
▁1935	-11.308
▁sunum	-11.3082
nci	-11.3082
▁1920	-11.3083
▁ayırma	-11.3084
91	-11.3084
ME	-11.3084
▁yolun	-11.3086
▁kurallar	-11.3089
▁bahsettiği	-11.3089
▁ikisini	-11.309
▁Bakü	-11.309
▁adres	-11.3091
▁gösterisi	-11.3093
▁Bağımsız	-11.3093
▁unsuru	-11.3094
▁savunuyor	-11.3094
ilebilir	-11.3095
▁anlıyorum	-11.3095
çiler	-11.3095
▁mini	-11.3097
anne	-11.3098
▁yöntemler	-11.3099
▁yaratabilir	-11.3099
▁gülümseme	-11.3099
tüm	-11.31
▁edilerek	-11.3101
▁dilinden	-11.3101
▁Pers	-11.3101
▁istedikleri	-11.3102
▁amcası	-11.3102
▁kapatın	-11.3105
landırma	-11.3105
hel	-11.3108
▁Johann	-11.3108
▁önerir	-11.311
▁havlu	-11.311
▁grupların	-11.3111
ك	-11.3113
dığından	-11.3114
lendirilmiştir	-11.3117
lıyız	-11.3118
▁Monica	-11.3118
▁yazılır	-11.3119
▁Potansiyel	-11.312
Sam	-11.3123
▁kelimelere	-11.3123
▁getirmeye	-11.3123
▁kilisenin	-11.3124
kir	-11.3124
▁birlik	-11.3126
▁vurdu	-11.3126
▁Yargıç	-11.3126
▁manevi	-11.3128
▁çeviriyi	-11.3129
▁çıktığını	-11.3129
▁çevrilir	-11.313
yeni	-11.313
Kadın	-11.3131
▁Baker	-11.3131
zade	-11.3133
ladığını	-11.3133
▁Muhtemelen	-11.3135
▁kalmaz	-11.3137
▁mıdır	-11.3137
▁Rod	-11.3138
▁büyümesini	-11.3138
kom	-11.3138
▁kadınla	-11.3139
▁yazılımı	-11.3141
▁politikaları	-11.3143
▁imparatorluk	-11.3143
▁kaptanı	-11.3144
▁ekipman	-11.3145
▁evlerine	-11.3145
▁Rize	-11.3145
lemek	-11.3147
▁eylemlerini	-11.3148
▁Cleveland	-11.3149
▁atmosferi	-11.3149
▁sırasındaki	-11.315
▁Tekrar	-11.3152
▁içinden	-11.3153
▁halihazırda	-11.3156
On	-11.3157
▁Hol	-11.3158
ebilen	-11.3158
▁Trans	-11.3162
▁belirler	-11.3162
▁kutlamak	-11.3163
▁Mükemmel	-11.3163
▁HIV	-11.3164
As	-11.3167
▁kitabının	-11.317
▁Daily	-11.3173
Orta	-11.3173
▁parasını	-11.3175
▁Craig	-11.3177
▁tehdidi	-11.3179
▁haberleri	-11.3179
▁Kalan	-11.3179
▁1949	-11.318
▁Tayvan	-11.3181
▁parçaya	-11.3181
▁1966'	-11.3181
▁hazırlamak	-11.3181
▁topluluklar	-11.3182
▁İşlem	-11.3184
▁teşkil	-11.3186
▁yabani	-11.3187
▁general	-11.3187
deyken	-11.3188
▁Üyeliği	-11.3189
ildi	-11.3196
ılacak	-11.3199
▁değişikliklere	-11.3199
▁dönemlerinde	-11.32
Bazı	-11.3202
▁öncü	-11.3202
▁vermiş	-11.3202
▁Rusçaya	-11.3203
▁Lennon	-11.3204
▁UNESCO	-11.3204
etti	-11.3205
▁delik	-11.3205
▁takımıyla	-11.3207
▁element	-11.3207
head	-11.3208
▁bununla	-11.3209
▁Annie	-11.3211
▁filmden	-11.3212
▁#4	-11.3213
▁kalbi	-11.3213
▁basitçe	-11.3215
▁Öneri	-11.3215
81	-11.3216
Gu	-11.3216
▁hevesli	-11.3218
▁cinsinden	-11.3218
▁çarptırıldı	-11.3218
▁bisiklete	-11.3218
▁haberler	-11.3219
▁Yüz	-11.322
▁1941	-11.3221
▁Carlos	-11.3221
▁bitkileri	-11.3223
73	-11.3224
▁yaprakları	-11.3224
ق	-11.3225
▁salonunda	-11.3228
▁farklılıkları	-11.3229
▁görmüş	-11.3229
TC	-11.3229
▁Yap	-11.3229
▁Senatosu	-11.3231
▁değiller	-11.3233
▁VI	-11.3234
▁karşılamaktadır	-11.3234
▁Küresel	-11.3235
IV	-11.3235
▁işlemleri	-11.3237
org	-11.3238
▁Ege	-11.3241
▁-2	-11.3243
68	-11.3243
▁Addison	-11.3244
▁başlarına	-11.3244
▁destekledi	-11.3245
▁doğrultusunda	-11.3245
▁ağaçlar	-11.3248
▁günler	-11.3249
▁Inn	-11.3249
▁Durumu	-11.325
larken	-11.325
▁Cho	-11.3252
▁komedyen	-11.3252
▁Nar	-11.3253
▁Galiçyaca	-11.3253
▁gelenek	-11.3256
▁söylenir	-11.3259
▁iyisi	-11.326
▁sağlamayı	-11.3262
▁tartışmaya	-11.3262
▁sorunlarına	-11.3263
▁kalanını	-11.3263
▁ayrılarak	-11.3266
▁kaldırılması	-11.3267
▁kızlar	-11.3268
▁kurtarır	-11.3269
▁çabuk	-11.3273
▁67	-11.3274
▁Up	-11.3274
▁duman	-11.3275
▁Robinson	-11.3275
▁manastır	-11.3277
▁kaydedildi	-11.3279
▁ölümüyle	-11.328
▁takas	-11.3282
▁ilçenin	-11.3282
▁oluşturuldu	-11.3284
▁Moon	-11.3286
▁incelemesinde	-11.3286
▁1975'	-11.3287
▁kaleme	-11.3288
▁yapabilirsiniz	-11.3289
▁inanıyordu	-11.3289
▁umuduyla	-11.3289
▁saatleri	-11.3291
▁Down	-11.3291
▁dul	-11.3291
▁haberine	-11.3292
▁Cümlesi	-11.3292
▁-3	-11.3293
▁kardeşleri	-11.3293
▁röportajda	-11.3293
▁halefi	-11.3294
▁ağabeyi	-11.3294
▁akraba	-11.3295
ю	-11.3295
▁iyiydi	-11.3298
▁Café	-11.33
▁1925	-11.3301
tic	-11.3302
▁gösterileri	-11.3304
▁İmparatoru	-11.3304
▁Karakter	-11.3305
▁hayvanı	-11.3306
58	-11.3306
▁dünyasının	-11.3307
▁Noktalama	-11.3309
▁soruluyor	-11.331
Rus	-11.3311
nen	-11.3311
▁arasındadır	-11.3311
▁belirttiği	-11.3311
▁Kuru	-11.3311
▁böcekler	-11.3312
▁indi	-11.3313
▁yemeyi	-11.3314
▁almadan	-11.3316
▁etkinliğe	-11.3316
▁sonlarına	-11.3316
wer	-11.3317
▁mühendis	-11.3317
▁93	-11.3321
▁Vol	-11.3322
▁tanıdı	-11.3322
▁birbirini	-11.3323
ب	-11.3323
▁Ebu	-11.3323
▁sütun	-11.3329
rken	-11.3331
▁dekor	-11.3332
▁Cezayir	-11.3333
▁kızının	-11.3335
▁Hamburg	-11.3335
▁planlar	-11.3336
▁Campbell	-11.3336
▁kut	-11.3336
ami	-11.3338
▁olacağına	-11.3339
▁hücrelerin	-11.3341
▁ucunda	-11.3342
▁deneysel	-11.3344
▁duyuyor	-11.3346
umu	-11.3349
▁kıl	-11.3353
▁taşıdığı	-11.3355
▁bilişsel	-11.3357
▁Fatih	-11.3357
▁yayını	-11.3363
98	-11.3363
▁Yusuf	-11.3363
▁Göl	-11.3364
▁Toronto	-11.3366
yang	-11.3366
▁Sınır	-11.3368
▁izleyiciler	-11.3369
▁Bak	-11.3369
William	-11.337
▁odaya	-11.3371
▁katılarak	-11.3372
▁arkadaşıyla	-11.3372
▁geçmişini	-11.3374
rü	-11.3374
▁bilmiyorum	-11.3379
▁bağlantıyı	-11.338
▁Dükü	-11.3381
▁gazetesi	-11.3382
leşen	-11.3382
ș	-11.3385
▁tava	-11.3385
▁59	-11.3388
▁Medya	-11.3389
▁bulaşık	-11.3389
▁Bize	-11.339
sim	-11.339
Ce	-11.3392
▁Oluşturula	-11.3392
▁aileler	-11.3392
nuzu	-11.3392
▁performanslar	-11.3393
▁dikkatle	-11.3394
▁duruşma	-11.3395
▁Kütüphanesi	-11.3396
▁güneşli	-11.3397
▁kazası	-11.3397
▁Kolombiya	-11.3397
▁Alabama	-11.3398
▁patlayıcı	-11.3399
▁piştikte	-11.3399
▁gerektiğinde	-11.34
▁tahsis	-11.34
▁izni	-11.3401
diğinden	-11.3402
▁zorluklara	-11.3404
elim	-11.3404
93	-11.3405
▁Anıtı	-11.3405
▁Logan	-11.341
▁DC	-11.3412
▁yanıtını	-11.3415
▁değiştirir	-11.3419
▁tüketimi	-11.342
▁telafi	-11.342
▁harcadı	-11.3421
▁Arena	-11.3421
▁tekerlekli	-11.3423
▁verdikleri	-11.3424
▁Ajansı	-11.3425
▁Cumhuriyetçiler	-11.3426
▁tartışmalara	-11.3426
▁Missouri	-11.3427
ebilmesi	-11.3428
▁trenin	-11.3428
47	-11.343
▁1971'	-11.343
▁Çi	-11.343
AT	-11.343
▁Yönetimi	-11.343
▁avantaj	-11.343
▁verebilirim	-11.3431
▁bahseder	-11.3431
▁durumdur	-11.3432
tme	-11.3434
▁1944'	-11.3439
▁alınarak	-11.344
ore	-11.344
▁Franklin	-11.3444
▁oldum	-11.3446
▁arkasına	-11.3447
ure	-11.3447
Baş	-11.3448
▁harflerle	-11.345
▁fil	-11.345
▁Gemi	-11.3451
▁62	-11.3455
▁sorunların	-11.3458
67	-11.3459
▁keşfetmek	-11.346
aka	-11.3461
ges	-11.3461
▁ilkokul	-11.3463
▁sır	-11.3463
sindeki	-11.3464
▁incelemesinin	-11.3466
▁Mahallenin	-11.3467
▁Budist	-11.3468
▁duyduğunu	-11.3469
▁uyarınca	-11.347
▁anahtarı	-11.347
ь	-11.3471
▁formu	-11.3471
▁yiyen	-11.3472
▁artışı	-11.3474
▁Dava	-11.3475
eg	-11.3475
▁Kyle	-11.3476
▁vermez	-11.3476
▁Gen	-11.3477
▁sorma	-11.3477
▁Power	-11.3478
▁Köyü	-11.348
▁sorumluluğunu	-11.3481
our	-11.3481
▁Voleybol	-11.3484
▁ısınma	-11.3485
▁şeridi	-11.3486
▁birinden	-11.3487
▁yakalandı	-11.3489
sındaki	-11.3489
▁torba	-11.3491
▁iklimi	-11.3491
▁Arnavut	-11.3491
77	-11.3492
sco	-11.3495
OS	-11.3495
▁edebi	-11.3497
▁konuştuğu	-11.3499
▁maliyetleri	-11.3502
▁belirtildi	-11.3503
ick	-11.3504
▁serinin	-11.3506
▁fasulye	-11.3508
▁sade	-11.3508
▁olduğunuzu	-11.3508
▁Mutlu	-11.3509
▁ulus	-11.3512
Kırmızı	-11.3512
▁hikayede	-11.3513
▁göstermeye	-11.3515
▁zorlukların	-11.3515
▁Kupa	-11.3516
▁mahkûm	-11.3516
▁atlet	-11.3517
▁Alfred	-11.3518
▁aynıdır	-11.3518
ة	-11.3519
▁Ruh	-11.352
▁masum	-11.3521
ksiyon	-11.3523
▁Pol	-11.3523
▁eşleşme	-11.3524
▁Meslek	-11.3525
UN	-11.3527
rk	-11.3527
▁cümlesinden	-11.3529
▁vermesini	-11.353
laştı	-11.3531
▁Rebecca	-11.3532
▁Gizli	-11.3533
▁tabak	-11.3535
▁taşları	-11.3537
▁kişileri	-11.3538
▁Tunus	-11.3538
▁Mersin	-11.3538
Dr	-11.3539
▁görünme	-11.3539
▁doğuda	-11.3539
▁aradı	-11.354
▁1930	-11.354
▁Melbourne	-11.3541
▁Ürdün	-11.3541
▁yorumları	-11.3542
▁edeceği	-11.3543
▁QB	-11.3544
1)	-11.3545
Ti	-11.3546
▁ocak	-11.3546
▁atı	-11.3546
▁Nüfusu	-11.3547
▁destekleme	-11.3547
▁Atletizm	-11.3548
▁sekreteri	-11.3548
▁paraya	-11.3548
▁Mehmed	-11.3549
▁duyma	-11.3549
▁sınırlarını	-11.3549
▁çıkarıldı	-11.355
▁sola	-11.355
▁Brooklyn	-11.3551
George	-11.3551
▁Evans	-11.3552
▁Ofisi	-11.3553
▁Col	-11.3553
▁videosu	-11.3555
▁ortamlarda	-11.3555
▁sözdizimsel	-11.3555
▁başbakanı	-11.3555
▁hücresi	-11.3556
▁Umarım	-11.3556
▁olabilirsiniz	-11.3557
▁diyerek	-11.3557
▁Tercüme	-11.3557
▁Op	-11.3558
▁odağı	-11.3559
▁destekler	-11.3559
▁Rad	-11.3559
▁Il	-11.356
▁61	-11.356
▁1943	-11.3562
▁çekimleri	-11.3563
▁aşkı	-11.3563
▁binalar	-11.3563
▁Rey	-11.3564
▁oynadığını	-11.3564
▁sağlığını	-11.3565
luğun	-11.3567
▁Boz	-11.3567
▁merkezindeki	-11.3567
▁koltuk	-11.357
▁gerekçesi	-11.357
▁Saldırı	-11.3571
▁liberal	-11.3572
▁Lar	-11.3572
▁ibadet	-11.3572
Farsça	-11.3573
▁kuzeyde	-11.3574
▁düşünen	-11.3575
▁banliyö	-11.3577
▁ayıran	-11.3579
Ju	-11.3579
▁ABC	-11.3579
▁sergiler	-11.358
▁ekibin	-11.3581
▁terimler	-11.3582
▁69	-11.3582
▁şehirdeki	-11.3583
▁1984'	-11.3585
▁göstermiştir	-11.3585
▁parkın	-11.3586
▁olgu	-11.3587
▁heyecanlı	-11.3588
▁88	-11.3588
▁→	-11.359
▁düzenleyici	-11.3591
▁fantastik	-11.3593
▁aralık	-11.3593
▁düşündüğünü	-11.3597
▁vermektir	-11.3599
▁sömürge	-11.3602
▁sunun	-11.3602
▁Dol	-11.3603
▁boks	-11.3604
ınızın	-11.3604
▁AC	-11.3605
▁Nancy	-11.3605
▁Gabriel	-11.3605
▁Center	-11.3605
▁kolları	-11.3609
▁isimdir	-11.3611
▁alışverişi	-11.3613
oo	-11.3614
▁izleyicilerin	-11.3614
üç	-11.3614
▁göründüğü	-11.3616
▁yorgun	-11.3617
▁görüntüler	-11.3617
▁göstererek	-11.362
▁prens	-11.362
▁olumludur	-11.3623
▁boğa	-11.3624
ssa	-11.3625
▁öğrencinin	-11.3625
▁bilme	-11.3625
▁1973'	-11.3626
▁aşama	-11.3627
▁kaybetme	-11.3627
▁ayrılmak	-11.3627
▁davranışı	-11.3628
lerimiz	-11.3631
▁Chan	-11.3633
▁keşfedildi	-11.3636
▁Kayıt	-11.3637
DE	-11.3637
▁süs	-11.3638
▁hareketsiz	-11.364
▁yürüdü	-11.3641
AK	-11.3642
AB	-11.3643
▁hepsini	-11.3643
▁Senatör	-11.3645
▁gördüğünü	-11.3646
▁özgürlük	-11.3648
AC	-11.365
▁tavşan	-11.3651
Peter	-11.3652
nus	-11.3655
▁Hala	-11.3656
▁erişimi	-11.3656
▁raporu	-11.3658
89	-11.3658
▁yürek	-11.3658
▁kafe	-11.3663
י	-11.3663
▁düzenlenmiştir	-11.3666
!!	-11.3666
▁10'	-11.3668
▁yıllardır	-11.3669
▁puanla	-11.3671
▁yazarıdır	-11.3672
▁74	-11.3677
65	-11.3677
▁Saf	-11.3677
lerimizi	-11.3677
▁düzensiz	-11.3678
▁bölerek	-11.3678
ан	-11.3679
▁formasını	-11.3683
▁cüce	-11.3685
▁kayma	-11.3687
▁endüstrisinde	-11.3688
▁Ortalama	-11.3688
ava	-11.3689
▁çabalarını	-11.369
Ana	-11.3691
▁mobilya	-11.3691
▁Pas	-11.3691
▁kullanıma	-11.3691
▁kazanmaya	-11.3692
▁noktasında	-11.3692
▁Carrie	-11.3694
▁siteleri	-11.3695
▁hesaplama	-11.3696
▁fabrikası	-11.3697
▁sırasını	-11.3699
▁bağlamına	-11.3699
şar	-11.37
▁güneybatısında	-11.3701
ple	-11.3702
stone	-11.3705
▁şansınızı	-11.3705
▁84	-11.3705
▁eğiliminde	-11.3706
▁editörü	-11.3707
▁gösterilmiştir	-11.3707
▁parçacıkları	-11.3707
▁albümde	-11.3707
Mavi	-11.3708
▁Press	-11.371
▁Marc	-11.3711
gerçek	-11.3712
▁finansman	-11.3712
▁değişti	-11.3713
▁Rol	-11.3713
▁mo	-11.3715
▁izlemeye	-11.3715
▁yerlere	-11.3716
teri	-11.3716
med	-11.3718
▁Dun	-11.3718
uch	-11.3719
▁yayıncı	-11.3719
▁girişimleri	-11.3719
nor	-11.372
▁Teğmen	-11.3721
▁tümünü	-11.3722
▁temsilci	-11.3722
ре	-11.3723
▁Metal	-11.3723
▁Liga	-11.3723
▁denize	-11.3723
yarak	-11.3725
▁Hareketi	-11.3726
▁sözcükleri	-11.3727
▁programlar	-11.3727
▁kaynaklanmakta	-11.3729
▁Yasa	-11.373
▁anıt	-11.373
▁800	-11.373
▁God	-11.373
▁kuyruklu	-11.3731
▁Gro	-11.3732
▁emir	-11.3734
▁damak	-11.3735
ebe	-11.3736
▁kaldırdı	-11.374
▁muhabiri	-11.3741
▁dizisidir	-11.3741
Cevabınızı	-11.3743
▁taban	-11.3743
▁çıkarılan	-11.3744
▁ildir	-11.3744
▁listesindeki	-11.3745
▁Aç	-11.3748
»	-11.375
▁buradan	-11.3752
▁Kont	-11.3752
▁Fran	-11.3752
▁Zo	-11.3752
▁kutup	-11.3754
▁kot	-11.3754
62	-11.3755
fet	-11.3758
▁durumdan	-11.3759
▁pasını	-11.3761
leşti	-11.3761
▁RB	-11.3761
▁başlarlar	-11.3764
hor	-11.3764
▁Murray	-11.3764
▁platformu	-11.3764
▁Leo	-11.3765
▁Müze	-11.3765
▁sektöründe	-11.3765
▁terimini	-11.3765
▁Gold	-11.3766
▁enstrüman	-11.3766
▁gecenin	-11.3766
▁yılan	-11.3767
▁Özerk	-11.3767
▁batıda	-11.3768
▁formasıyla	-11.3768
▁yarısını	-11.3768
▁hissettim	-11.377
▁nakliye	-11.377
▁Bahçe	-11.3772
▁yaralı	-11.3772
kte	-11.3773
▁Stewart	-11.3773
▁kayda	-11.3774
▁Nur	-11.3775
▁Fiyat	-11.3775
▁farkındalık	-11.3776
sion	-11.3776
▁uzaylı	-11.3779
▁stili	-11.3779
▁Uçak	-11.3781
▁başlayıp	-11.3782
▁ışığın	-11.3784
▁kahramanı	-11.3784
▁1936	-11.3786
▁görevlerini	-11.3786
▁görevinde	-11.3786
▁ısıtma	-11.3788
▁bugüne	-11.3792
▁önemlisi	-11.3794
▁köpekler	-11.3796
▁kategorisi	-11.3797
Kategori	-11.38
ी	-11.3801
▁yasadışı	-11.3801
zel	-11.3802
▁bilen	-11.3806
▁Sü	-11.3807
▁Broadway	-11.3809
▁birleştiren	-11.381
▁1957'	-11.381
▁Kaynak	-11.3811
▁İsmail	-11.3812
▁oluşturacak	-11.3812
▁garaj	-11.3813
ilişkilendirilen	-11.3814
▁Aşırı	-11.3815
▁yetecek	-11.3816
▁askerleri	-11.3816
mark	-11.3819
▁Harrison	-11.382
▁saçları	-11.382
▁gerçekleştiğini	-11.3821
61	-11.3822
▁Mexico	-11.3823
▁toprakları	-11.3824
66	-11.3824
▁yaparlar	-11.3825
▁alanlarına	-11.3826
▁bulmayı	-11.3827
300	-11.3827
▁toplantısında	-11.3829
tık	-11.3829
abilirsiniz	-11.3829
▁1942	-11.383
▁ayrıldıktan	-11.383
63	-11.3831
▁dönmeye	-11.3834
yaklaşık	-11.3834
▁ülkelerden	-11.3835
▁Fiziksel	-11.3836
▁toprağın	-11.3837
▁sınıflandırıl	-11.3837
▁düşmesi	-11.3837
▁satılan	-11.3839
▁Julie	-11.384
▁savunması	-11.384
▁saldırıları	-11.3844
▁uçan	-11.3845
google	-11.3845
▁Balkan	-11.385
▁tesisi	-11.3851
▁gösterilir	-11.3853
▁mutasyon	-11.3855
▁fotoğrafları	-11.3856
▁1938	-11.3856
▁hayali	-11.3858
▁potansiyeline	-11.386
▁Hacı	-11.3862
▁Grace	-11.3862
▁çekilme	-11.3865
▁mücadelesi	-11.3865
▁önleme	-11.3865
ни	-11.3866
▁denk	-11.3868
ium	-11.3868
Anne	-11.3868
▁Texas	-11.3869
▁muhafaza	-11.3869
▁Annem	-11.3869
▁kurallara	-11.3875
▁olasılık	-11.3876
▁sorunla	-11.3878
▁yoldan	-11.3879
CO	-11.3883
▁babam	-11.3885
▁topa	-11.3885
▁ilgileniyor	-11.3888
▁nakit	-11.389
▁yarar	-11.3892
▁yıla	-11.3892
▁Hil	-11.3897
▁fincan	-11.3897
▁ağzı	-11.3898
ight	-11.3898
▁Romence	-11.3901
▁varlığına	-11.3901
larımızı	-11.3903
▁favori	-11.3905
▁atletizm	-11.3906
▁açacaktır	-11.3906
▁yetişkinler	-11.3907
▁bağımlılığı	-11.3909
ük	-11.3915
▁is	-11.3916
▁eşya	-11.3916
▁fotoğrafını	-11.3917
▁adındaki	-11.3917
▁gerçekleştirme	-11.3917
▁eserin	-11.3918
▁depresyon	-11.3918
▁sıfat	-11.3918
▁azınlık	-11.3919
▁bulunmamaktadır	-11.392
▁pay	-11.3924
▁gelişmeler	-11.3924
4)	-11.3925
▁(11	-11.3927
▁ot	-11.3927
▁bekleyin	-11.3927
lum	-11.3927
▁üretilir	-11.3929
▁}	-11.3934
▁Wisconsin	-11.3935
▁hop	-11.3936
çü	-11.3937
▁Pir	-11.3937
▁şerit	-11.3938
▁istediğim	-11.3939
▁önlemler	-11.3939
▁tercihleri	-11.3939
▁Waterman	-11.394
▁buharı	-11.394
ula	-11.394
▁dökümü	-11.3942
bri	-11.3942
▁sudan	-11.3943
chen	-11.3943
▁güneybatı	-11.3944
▁renkler	-11.3948
MS	-11.3948
▁açtığını	-11.3948
▁muyuz	-11.3949
▁patlaması	-11.395
▁TRT	-11.395
diklerini	-11.3951
▁Oyunun	-11.3952
ו	-11.3954
▁Bahsedilen	-11.3954
▁Hepsi	-11.3954
▁tak	-11.3954
▁sabun	-11.3955
▁kaldım	-11.3955
xi	-11.3956
▁Öğrencilerin	-11.3956
▁kültürünün	-11.3956
▁inancı	-11.3957
▁desteğini	-11.396
▁bağlılık	-11.396
▁Frederick	-11.396
▁Stanley	-11.3963
▁düşünmeye	-11.3965
malıdır	-11.3967
▁donanım	-11.3967
▁Les	-11.3968
▁Abdullah	-11.3971
▁Russell	-11.3971
▁parantez	-11.3972
▁çalışırlar	-11.3972
▁inandığı	-11.3975
▁sektör	-11.3975
▁İnce	-11.3977
▁araştırması	-11.3979
▁üniversitede	-11.398
nizle	-11.3981
▁Keith	-11.3984
▁kıyafeti	-11.3984
▁Okyanus	-11.3984
▁Samantha	-11.3986
▁sendromu	-11.3986
▁taç	-11.3987
▁Burası	-11.3991
▁harfini	-11.3993
▁vurgulamak	-11.3993
▁gelmediğini	-11.3993
▁Cephesi	-11.3993
▁zamanının	-11.3994
▁kadrosuna	-11.3994
▁güneşin	-11.3994
▁Şam	-11.3997
Peki	-11.3997
▁adamlar	-11.4
▁ısıtılmış	-11.4001
▁değişkenini	-11.4002
▁bulunmadığından	-11.4005
hol	-11.4005
▁değerlendirilme	-11.4006
▁sözlerini	-11.4006
issa	-11.4007
▁özgürlüğü	-11.4013
▁alırlar	-11.4014
mor	-11.4014
İş	-11.4015
▁ayın	-11.4015
▁ödemek	-11.4015
▁vereceğim	-11.4016
▁Barack	-11.4016
▁keman	-11.4017
55	-11.4019
▁finalist	-11.402
▁Murat	-11.4021
▁robot	-11.4021
▁Tak	-11.4022
▁öznesi	-11.4022
▁Almancaya	-11.4023
▁Cro	-11.4024
▁Queen	-11.4025
▁Şehirdeki	-11.403
▁dönüp	-11.4031
▁sorulduğunda	-11.4031
▁rota	-11.4032
▁PC	-11.4032
▁Otel	-11.4032
▁açı	-11.4033
▁deyişle	-11.4036
▁motive	-11.4039
ч	-11.4039
▁Edirne	-11.4039
sunun	-11.4039
▁soyu	-11.404
Hu	-11.4041
kta	-11.4042
▁Kaç	-11.4042
▁restoranda	-11.4043
▁salgını	-11.4043
▁bazılarını	-11.4044
▁şeyle	-11.4044
vers	-11.4045
5)	-11.4046
▁Komisyon	-11.4047
▁Bağımsızlık	-11.4047
Yeşil	-11.4048
▁hokeyi	-11.4049
▁Hen	-11.405
▁çalmak	-11.4051
-14	-11.4053
▁Yazarın	-11.4054
▁makalesi	-11.4054
▁getirilen	-11.4054
▁Walker	-11.4054
▁Mücadele	-11.4055
▁Dedektif	-11.4055
97	-11.4055
▁kaçan	-11.4062
▁Holmes	-11.4062
▁1941'	-11.4062
▁odaklanarak	-11.4062
▁kalarak	-11.4062
▁bulunmuş	-11.4062
had	-11.4062
▁Game	-11.4066
nal	-11.407
▁acele	-11.4071
▁hile	-11.4073
▁Hanım	-11.4074
▁Geniş	-11.4079
▁Free	-11.408
▁İşleri	-11.408
▁kartları	-11.4081
Ge	-11.4082
96	-11.4082
▁oğlan	-11.4082
aga	-11.4083
▁rezervasyon	-11.4083
▁yapının	-11.4084
▁san	-11.4084
yama	-11.4084
pra	-11.4084
▁Wh	-11.4085
▁programın	-11.4086
▁lastik	-11.4087
Olumsuz	-11.4087
day	-11.4088
Mer	-11.4088
▁kuzeybatısında	-11.4088
▁gittim	-11.4088
▁bilgisayarlar	-11.409
▁Diş	-11.4091
▁niyeti	-11.4092
▁Af	-11.4093
▁Fri	-11.4094
▁asal	-11.4094
▁yetiştirme	-11.4094
Siyah	-11.4095
▁zehirli	-11.4098
▁Oğlu	-11.4098
▁Adını	-11.4101
▁sporu	-11.4101
▁kafasını	-11.4101
▁Posta	-11.4105
▁tesisleri	-11.4105
▁Parça	-11.4106
▁bahsetti	-11.4108
▁Kars	-11.4112
▁Randy	-11.4113
▁Ayı	-11.4113
▁kinetik	-11.4114
▁okumayı	-11.4115
▁peri	-11.4117
▁Piyade	-11.4117
▁kuvvetler	-11.4118
▁artırmaya	-11.4118
▁eleştirmenler	-11.4119
▁sayede	-11.4121
▁Gıda	-11.4122
51	-11.4123
▁vatandaşları	-11.4124
▁kamuya	-11.4124
▁meclisi	-11.4124
▁Hel	-11.4124
town	-11.4125
Bal	-11.413
▁nişan	-11.413
▁sevilen	-11.4131
▁ayağı	-11.4131
▁Öncülde	-11.4133
▁giymektedir	-11.4137
▁kasa	-11.4138
▁Guy	-11.4138
à	-11.414
Sorunun	-11.4141
▁Watson	-11.4144
▁DAHA	-11.4144
▁1963'	-11.4144
▁eğilimindedir	-11.4145
▁kaynaklı	-11.4145
▁Des	-11.4145
▁sürdüğü	-11.4147
▁otorite	-11.4147
▁İnşaat	-11.415
▁Gerekli	-11.4151
▁klinik	-11.4151
▁hataları	-11.4151
▁galip	-11.4152
▁tamsayı	-11.4153
▁organizmaların	-11.4154
▁kemer	-11.4154
nak	-11.4154
cin	-11.4155
▁Eğitimi	-11.4157
▁cihazlar	-11.4161
▁boşanma	-11.4163
▁Hakkında	-11.4163
▁maçını	-11.4163
▁resmen	-11.4165
▁mektubu	-11.4165
▁satranç	-11.4167
▁Arsenal	-11.4167
▁(3).	-11.4168
▁kabuğu	-11.4169
▁kere	-11.417
▁basitleştirir	-11.4171
▁gezisi	-11.4172
▁benimle	-11.4172
▁ilacı	-11.4173
▁bebeğin	-11.4174
▁masanın	-11.4174
▁Wu	-11.4175
beyaz	-11.4176
▁yaklaşırken	-11.4176
▁Claire	-11.4177
▁yapmadan	-11.4178
▁bileşik	-11.4179
▁gelişti	-11.418
▁talimatları	-11.4181
▁telaffuz	-11.4181
▁Au	-11.4182
▁çıkarımını	-11.4182
▁bakar	-11.4182
▁Kömür	-11.4187
▁turunda	-11.4187
FC	-11.4188
▁müzikleri	-11.4189
kut	-11.419
▁odaklanır	-11.419
▁buldular	-11.4192
▁çalmaya	-11.4192
▁Luke	-11.4193
ınız	-11.4193
▁malzemesi	-11.4194
▁akar	-11.4195
bro	-11.4195
▁odanın	-11.4195
▁dere	-11.4196
▁kaldılar	-11.4196
▁(8	-11.4197
▁Çevrilmiş	-11.4197
▁atılır	-11.4198
LE	-11.42
ет	-11.42
▁kuzeydoğusunda	-11.4201
▁Khan	-11.4201
▁derinden	-11.4201
ese	-11.4201
▁Sea	-11.4202
▁je	-11.4203
göz	-11.4205
▁katkıları	-11.4206
bot	-11.4206
▁And	-11.4207
▁iğrenç	-11.4207
▁gerçekleştiril	-11.4208
▁çıkarlar	-11.4209
▁kelimesinden	-11.4212
▁derhal	-11.4213
▁saklamak	-11.4215
▁sonradan	-11.4215
▁tanınma	-11.4215
▁okur	-11.4216
▁koşan	-11.4216
▁vize	-11.4217
▁jet	-11.4217
▁iyileştirmek	-11.4218
fin	-11.4219
▁Inter	-11.4222
▁versiyon	-11.4226
▁esrar	-11.4228
▁etkilenir	-11.4228
▁kuvvetlerinin	-11.4229
▁yapıyorlar	-11.4229
▁çekin	-11.423
▁görüşlerini	-11.423
▁doğrulanabilir	-11.423
Du	-11.423
▁düzeltme	-11.423
▁mühendisi	-11.423
▁Kayseri	-11.4231
▁grubunu	-11.4232
▁uyanır	-11.4234
▁kafası	-11.4234
▁oluşturulmuş	-11.4235
▁sahibinin	-11.4236
▁etkisine	-11.4236
▁Joan	-11.4236
▁beklerken	-11.4237
▁tabakası	-11.4238
▁Bence	-11.4238
▁geleceğini	-11.4238
amayacağı	-11.4239
▁olmuştu	-11.4242
▁İdaresi	-11.4242
▁artıyor	-11.4243
▁istenmeyen	-11.4243
Gö	-11.4244
▁çık	-11.4245
▁silahı	-11.4245
▁Sıra	-11.4246
▁Devam	-11.4248
▁tazminat	-11.4248
ena	-11.4249
▁Yiyecek	-11.4251
▁emniyet	-11.4251
wen	-11.4251
▁oğludur	-11.4252
▁söylenen	-11.4252
▁danışman	-11.4252
▁Belgrad	-11.4252
raz	-11.4253
▁niyetli	-11.4254
▁gününü	-11.4257
▁Of	-11.4257
ios	-11.4257
zor	-11.4257
▁uğramış	-11.4258
▁güneydoğu	-11.4259
▁vurgulayan	-11.4259
Hi	-11.4259
▁oranda	-11.426
▁dönemine	-11.4261
▁yıldızın	-11.4262
▁Ülkenin	-11.4263
▁neşe	-11.4263
▁yılını	-11.4263
▁denizaltı	-11.4265
mond	-11.4265
▁basitleştirin	-11.4267
▁ligde	-11.4268
▁belgeleri	-11.4268
ilmesi	-11.4268
oma	-11.4268
▁kullanırlar	-11.4269
▁sürükleyici	-11.427
▁pozisyonu	-11.427
Lu	-11.4273
▁subayı	-11.4275
▁Skylar	-11.4276
▁Devletler	-11.4276
öz	-11.4278
▁anısına	-11.4278
stat	-11.4279
-21	-11.4279
▁davranışlar	-11.4279
▁geliştirilmiş	-11.4279
▁Gür	-11.428
▁izini	-11.428
▁İklim	-11.4282
list	-11.4284
▁arayışı	-11.4285
▁jeolojik	-11.4285
▁sanal	-11.4286
▁tekli	-11.4287
▁tüyler	-11.4287
och	-11.4288
stein	-11.4288
▁Oregon	-11.4289
▁tamamlayın	-11.4289
▁mekanı	-11.4289
▁savunmasız	-11.429
▁söyleyebiliriz	-11.4292
▁Arama	-11.4294
▁170	-11.4295
▁1939	-11.4295
▁iyisini	-11.4297
▁bölgelere	-11.4297
▁bisikleti	-11.4298
▁çorba	-11.43
▁Vladimir	-11.4303
▁adımda	-11.4303
ê	-11.4304
▁Dans	-11.4305
▁uyarlanan	-11.4305
▁Nan	-11.4306
▁sahası	-11.4307
▁ateşi	-11.4307
▁midir	-11.431
▁Artan	-11.431
gı	-11.4311
▁çekilmiş	-11.4312
▁Kendini	-11.4313
ла	-11.4313
▁tamamlama	-11.4314
▁arabasını	-11.4315
▁oyununda	-11.4315
▁yolculuğuna	-11.4317
▁fren	-11.4317
▁müşteriler	-11.4318
ł	-11.4319
▁3).	-11.4319
▁çöz	-11.4322
▁dönerken	-11.4323
▁Ty	-11.4324
▁beklemek	-11.4324
▁yüzeyi	-11.4324
▁hakkını	-11.4325
▁Sc	-11.4325
▁komutan	-11.4327
▁annem	-11.4327
▁düşünülen	-11.4328
SP	-11.4328
▁yaşındaydı	-11.4329
▁ayakları	-11.433
▁geminin	-11.4331
▁tutucu	-11.4332
▁Günlük	-11.4332
lenecek	-11.4332
▁göze	-11.4332
▁değerinde	-11.4334
duğu	-11.4334
udur	-11.4335
▁muharebe	-11.4336
▁belirleyeceğim	-11.4336
▁saklama	-11.4339
▁mola	-11.434
vit	-11.4343
▁edecektir	-11.4344
ë	-11.4344
▁parkı	-11.4347
▁kaybına	-11.4347
▁adanmış	-11.4347
▁tezgah	-11.4349
▁öncelikli	-11.4349
▁gökada	-11.435
▁Senaryo	-11.435
▁160	-11.4351
▁görünmüyor	-11.4353
▁kolaylaştırır	-11.4355
▁kalabalığın	-11.4358
▁Sil	-11.4359
▁Isı	-11.436
▁koşullarına	-11.4361
▁Maryland	-11.4363
lisiniz	-11.4364
ра	-11.4364
▁Karadağ	-11.4364
şah	-11.4365
▁Üçlü	-11.4366
▁köşesinde	-11.4366
▁1964'	-11.4366
▁dayanır	-11.4367
▁Yolculuk	-11.4367
▁kal	-11.4368
▁%5	-11.4368
▁kanalında	-11.4369
via	-11.4369
▁1956'	-11.437
▁1947'	-11.437
▁Normal	-11.4371
▁yarışmaya	-11.4374
▁Dikkat	-11.4375
▁eşliğinde	-11.4375
▁bölümün	-11.4376
▁Martha	-11.4377
fan	-11.4377
▁kolluk	-11.4381
▁Sık	-11.4381
▁milletvekilleri	-11.4382
▁nefis	-11.4382
▁Değerlendirme	-11.4383
▁dergisinin	-11.4384
85	-11.4386
▁vardığında	-11.4387
▁Yumurta	-11.4388
▁yağmuru	-11.4389
▁Popüler	-11.439
▁1934	-11.4391
▁uzmanlık	-11.4391
▁günden	-11.4392
▁Ömer	-11.4393
▁almakta	-11.4396
▁ölüme	-11.4396
▁Rüzgar	-11.44
▁denizci	-11.4402
▁1939'	-11.4403
▁düşün	-11.4404
elle	-11.4405
▁makineleri	-11.4405
▁canavar	-11.4406
▁çağ	-11.4407
aklı	-11.4409
▁isteyecek	-11.4409
▁kaçak	-11.441
▁düzeyinde	-11.4411
ture	-11.4413
▁(7	-11.4413
EL	-11.4414
▁açılır	-11.4415
meden	-11.4415
▁levha	-11.4416
▁rapçi	-11.4419
▁Zor	-11.4419
Kısa	-11.4419
▁parçayı	-11.4419
▁motorlu	-11.4421
▁hikayeleri	-11.4421
▁Projesi	-11.4422
▁yürüttü	-11.4422
▁adaylığı	-11.4425
▁dosyaları	-11.4426
▁olmadıklarını	-11.4427
▁sevgili	-11.4428
▁nitrojen	-11.4429
▁şahıs	-11.4429
larımız	-11.4429
▁yazarlar	-11.4431
▁kaplan	-11.4431
izasyon	-11.4432
▁fırlatma	-11.4433
▁övüyor	-11.4434
sing	-11.4434
▁Anlaşma	-11.4435
▁hastalıkları	-11.4437
▁yaşamının	-11.4437
▁ekosistem	-11.4438
▁Üzeri	-11.4439
▁etkileme	-11.4439
▁pasajdan	-11.4441
▁söyleyebilirim	-11.4441
▁İslami	-11.4441
▁Anayasası	-11.4444
▁görünmektedir	-11.4445
▁dolardan	-11.4447
▁uyarlaması	-11.4447
▁belirlememiz	-11.4447
ello	-11.4448
▁çalışmıştır	-11.4448
▁Lions	-11.4448
▁bahçesi	-11.4448
▁elektro	-11.4449
▁motivasyon	-11.445
▁Ivan	-11.4451
rum	-11.4451
▁semtinde	-11.4452
▁mimarisi	-11.4453
▁Belarus	-11.4453
▁güzelliği	-11.4455
yal	-11.4455
▁uygulamasını	-11.4457
▁(9	-11.4458
▁kılığın	-11.4458
▁işlevleri	-11.4458
▁Ağa	-11.4459
▁kullanacağım	-11.4461
▁bilgilendirici	-11.4463
far	-11.4463
▁roller	-11.4463
▁etrafına	-11.4463
▁Gine	-11.4463
▁Ağrı	-11.4465
▁soygun	-11.4467
▁zeki	-11.4468
▁tıraş	-11.4468
▁pişmiş	-11.447
Metin	-11.4471
▁enerjinin	-11.4471
▁kışın	-11.4471
kadın	-11.4476
▁diplomat	-11.4476
▁girişimci	-11.4476
▁uygulamak	-11.4477
▁olduğumuz	-11.4477
bus	-11.4479
gas	-11.4481
yl	-11.4482
CC	-11.4482
▁yas	-11.4483
▁kümesi	-11.4484
▁yetkisi	-11.4485
▁paragrafın	-11.4486
▁eğitimine	-11.4487
▁çıkarken	-11.4488
Pro	-11.4491
▁sahnesinde	-11.4493
▁tonunu	-11.4494
ен	-11.4494
▁ceviz	-11.4496
▁saldırısına	-11.4498
▁oturum	-11.4499
▁destekleyecek	-11.4499
▁İçinden	-11.45
▁1962'	-11.45
▁tutulması	-11.4502
▁yelken	-11.4503
▁çeyreğin	-11.4504
▁çatışmalar	-11.4504
▁balina	-11.4505
▁tanışma	-11.4506
▁başlayacak	-11.4507
800	-11.4507
▁arkadaşınıza	-11.4507
▁çarpışma	-11.4507
▁Browns	-11.4508
▁Hükûmeti	-11.4508
▁liderliğini	-11.4513
▁söyleyemeyiz	-11.4515
diğiniz	-11.4516
▁çalışmasına	-11.4519
▁Petrol	-11.452
▁Konuşmacı	-11.4522
▁ilişkinin	-11.4522
▁yönetiminde	-11.4522
▁Tre	-11.4522
▁vadi	-11.4523
▁dizüstü	-11.4523
▁çocuklarını	-11.4523
▁Kategori	-11.4525
▁hasarı	-11.4526
▁vermedi	-11.4526
▁sözlük	-11.4527
ES	-11.4527
▁annesine	-11.4527
▁Sanatçı	-11.4528
zin	-11.4529
▁sağlamaktır	-11.453
▁katman	-11.453
▁Haven	-11.4531
▁birleşerek	-11.4533
▁ham	-11.4533
▁topun	-11.4534
Arapça	-11.4536
▁müstehcen	-11.4537
paşa	-11.454
ele	-11.454
▁Değer	-11.4544
▁perakende	-11.4544
▁birer	-11.4544
▁benzerlik	-11.4545
▁kuşu	-11.4545
▁Venezuela	-11.4545
▁öyküsü	-11.4547
▁kılıç	-11.4548
▁uyandıran	-11.4549
▁cümledir	-11.4549
▁Turner	-11.4549
▁korurken	-11.455
▁yapacağım	-11.4552
▁familyasından	-11.4552
▁gecikme	-11.4553
▁çevrilmesi	-11.4554
▁eskiden	-11.4554
ılarak	-11.4554
́	-11.4554
▁elimizde	-11.4555
▁huzur	-11.4555
▁halen	-11.4555
▁kaykay	-11.4556
doğum	-11.4557
▁Şuradan	-11.4558
▁havayolu	-11.456
▁dönüştürür	-11.4562
▁maliyetini	-11.4565
avi	-11.4567
▁1912	-11.4568
▁harfleri	-11.4569
laşmış	-11.4574
▁fotoğraflarını	-11.4574
▁bahsetmiyor	-11.4576
▁bölgesini	-11.4577
▁Telugu	-11.4578
▁Yorum	-11.4578
Kal	-11.4581
▁к	-11.4584
▁Öğrenciler	-11.4584
▁yaratmaya	-11.4585
tä	-11.4585
те	-11.4587
▁karışıklığı	-11.4588
eçtiğimiz	-11.4589
▁doğrulama	-11.459
-13	-11.459
▁unutma	-11.4591
▁Aralarında	-11.4592
▁belirlendi	-11.4593
▁getirilmesi	-11.4593
▁yüzleşir	-11.4593
Richard	-11.4595
▁görevlileri	-11.4596
▁üstlenmiştir	-11.4597
▁Şiir	-11.4597
abilmesi	-11.4598
▁plana	-11.4599
▁sözleşmesi	-11.46
▁sebebi	-11.4601
▁detaylı	-11.4601
▁tanıştığı	-11.4601
▁Dairesi	-11.4602
▁devleti	-11.4602
▁Angel	-11.4603
▁üyelerinden	-11.4603
▁getirmesi	-11.4606
▁yükü	-11.4608
▁kadınları	-11.4609
zon	-11.4609
▁1886	-11.4612
sür	-11.4612
▁Morris	-11.4613
▁formülü	-11.4613
▁nötr	-11.4614
▁yetkililerin	-11.4615
▁odaklanmak	-11.4615
▁onlarca	-11.4616
mir	-11.4616
▁Makaleyi	-11.4616
▁zamiri	-11.4617
eceğim	-11.4618
▁mermi	-11.4619
▁sahnesi	-11.4619
jen	-11.4619
askıya	-11.4619
▁kabile	-11.462
lıkları	-11.4621
▁formunda	-11.4622
▁uzlaşma	-11.4622
▁havuz	-11.4622
▁rehber	-11.4623
▁aşamada	-11.4623
▁87	-11.4624
▁şoförü	-11.4625
sko	-11.4626
Per	-11.4626
▁girmesine	-11.4628
▁büyür	-11.4628
▁Marcus	-11.4633
▁editör	-11.4633
▁Media	-11.4633
ces	-11.4634
▁üçgen	-11.4635
liğinden	-11.4635
▁görünse	-11.4636
▁puanına	-11.4636
HABER	-11.4637
▁Maç	-11.4637
▁Küre	-11.4638
▁senaryosunu	-11.4639
و	-11.464
▁resmini	-11.4642
put	-11.4642
▁veritabanı	-11.4642
▁odaklandı	-11.4642
▁IŞİD	-11.4643
▁Cat	-11.4643
dığında	-11.4646
▁eşittir	-11.4646
▁Bürosu	-11.4652
▁karşılama	-11.4653
fon	-11.4653
▁nişanlısı	-11.4654
vey	-11.4654
▁Hükümeti	-11.4654
lüğe	-11.4654
eği	-11.4654
▁glikoz	-11.4655
▁karın	-11.4656
▁örneğidir	-11.4656
▁Perde	-11.4659
▁Balıkesir	-11.466
▁görmesi	-11.466
▁senaryoyu	-11.4663
▁atmaya	-11.4663
▁Pasaj	-11.4665
▁Unutmayın	-11.4666
▁Ontario	-11.4666
▁uyumludur	-11.4667
▁sağladığını	-11.4668
▁anayasa	-11.4668
vir	-11.4669
▁yarışmada	-11.4669
خ	-11.467
▁Meksikalı	-11.467
▁Mini	-11.467
▁ihtimalinin	-11.4671
▁cesedi	-11.4672
▁Jamie	-11.4673
▁dilsel	-11.4675
▁bölünme	-11.4677
▁kuzeybatı	-11.4677
▁süreçleri	-11.4677
▁1918'	-11.4679
▁etiketleyin	-11.4682
▁Kelime	-11.4685
ique	-11.4685
ito	-11.4685
▁ekolojik	-11.4686
▁yakalanır	-11.4686
Şimdi	-11.4687
leyip	-11.4691
▁paylaşan	-11.4692
-6	-11.4692
▁duyuru	-11.4693
▁doğruluğu	-11.4694
▁oyuncudur	-11.4695
▁eklenmesi	-11.4695
▁fırsatlar	-11.4695
▁olabileceğine	-11.4696
▁görüldüğü	-11.4696
▁Hedef	-11.4697
▁Standart	-11.4697
▁Darwin	-11.4697
▁uzatma	-11.4699
▁kurarak	-11.47
▁inanma	-11.47
▁Saha	-11.47
▁73	-11.4702
▁kurt	-11.4702
▁maçlarını	-11.4703
▁eğilimi	-11.4703
▁kırılma	-11.4703
AM	-11.4703
▁Afrikan	-11.4706
▁okuyucu	-11.4706
▁takan	-11.4706
▁ayaklanma	-11.4706
▁üyeler	-11.4706
▁toprağı	-11.4707
▁kaydedilmiştir	-11.4707
▁konulara	-11.4708
▁bilerek	-11.471
▁fikirler	-11.471
▁belde	-11.471
▁em	-11.4711
▁koyma	-11.4711
▁maçlar	-11.4713
▁müziğini	-11.4713
▁dikiş	-11.4713
Gün	-11.4714
▁Central	-11.4715
▁Brezilyalı	-11.4717
▁bakteriler	-11.4717
file	-11.4717
▁keyfini	-11.4721
▁seçer	-11.4722
▁kapattı	-11.4722
▁Xbox	-11.4722
▁araştırmaları	-11.4722
▁varlıklar	-11.4722
▁pist	-11.4723
▁yazısı	-11.4723
▁ünlüdür	-11.4723
▁düşünceli	-11.4725
▁punk	-11.4725
▁Spe	-11.4726
▁koy	-11.4727
▁les	-11.4727
▁hayvanlara	-11.4728
▁teklifini	-11.4729
▁teselli	-11.473
▁mahsur	-11.473
▁Maggie	-11.4733
cısı	-11.4733
▁klibi	-11.4733
▁Bebek	-11.4735
▁dönüştürme	-11.4736
▁iddiaları	-11.4737
▁WWE	-11.4738
▁Kentucky	-11.4738
▁imha	-11.4738
▁radikal	-11.474
▁kırk	-11.474
▁prodüksiyon	-11.4742
▁Manastırı	-11.4743
▁maymun	-11.4743
▁100.000	-11.4744
▁azaltabilir	-11.4745
▁96	-11.4746
pozitif	-11.4747
▁şanslı	-11.4749
pl	-11.4752
All	-11.4754
▁ragbi	-11.4754
▁söylersiniz	-11.4754
▁mürettebat	-11.4755
▁Filmi	-11.4755
▁Departmanı	-11.4755
▁kullanmaktan	-11.4756
▁uçuşu	-11.4756
▁1924	-11.4756
▁okuyucunun	-11.476
▁Kenya	-11.4761
▁yemeye	-11.4762
▁Nihai	-11.4762
▁değiştirilmesi	-11.4764
▁yumruk	-11.4765
▁çivi	-11.4767
▁Monte	-11.4767
▁sürgün	-11.4769
▁değere	-11.4769
▁kulesi	-11.477
▁komşusu	-11.477
▁pe	-11.4773
▁yaklaştı	-11.4773
▁ortaokul	-11.4774
özellikle	-11.4775
▁MP	-11.4776
▁ülkesinde	-11.4776
hin	-11.4777
▁Old	-11.4778
LEFT	-11.4778
▁Diğerleri	-11.4779
enberg	-11.478
▁edilme	-11.4781
genellikle	-11.4782
▁söylüyorlar	-11.4782
▁Hattı	-11.4783
pper	-11.4783
iniz	-11.4783
▁kapsamı	-11.4785
▁France	-11.4785
▁Dennis	-11.4786
▁tanıtıldı	-11.4787
▁selam	-11.4787
▁tabanca	-11.4787
▁Lanka	-11.4788
▁Dam	-11.4788
▁soylu	-11.4789
▁mudur	-11.4791
▁şarkısıyla	-11.4791
iyordu	-11.4793
▁Broncos	-11.4794
▁cevaplıyor	-11.4794
▁kuşun	-11.4795
▁sahiptirler	-11.4796
▁arda	-11.4796
▁edildiğinde	-11.4798
▁özen	-11.4798
▁belirtiyorlar	-11.4801
▁çıkabilir	-11.4801
▁salata	-11.4801
▁Network	-11.4803
▁Kel	-11.4804
▁gücüne	-11.4806
▁bozulma	-11.4806
▁soyundan	-11.4807
vil	-11.4808
▁sis	-11.4808
▁konsantrasyon	-11.4809
hir	-11.481
▁belirsizlik	-11.4811
▁keşfettiği	-11.4811
Za	-11.4812
▁öfkeli	-11.4813
▁ulaşıl	-11.4814
▁çalışmalarıyla	-11.4814
▁Lucas	-11.4815
▁Makine	-11.4816
▁yüzünü	-11.4816
Denny	-11.4817
▁Wright	-11.4819
▁ulaşması	-11.4819
▁anlatılıyor	-11.482
▁silin	-11.482
▁Pil	-11.4821
▁etmelerine	-11.4822
▁Pierre	-11.4823
▁Yemen	-11.4824
nia	-11.4824
▁düzenlenmiş	-11.4824
▁krema	-11.4824
▁Dalları	-11.4825
▁öncülük	-11.4826
▁gel	-11.4827
▁iflas	-11.4827
▁seslendirdi	-11.4828
▁düşüktür	-11.483
▁makyaj	-11.4831
uç	-11.4831
▁satıcısı	-11.4832
▁ağaçları	-11.4833
▁anlamında	-11.4834
▁99	-11.4834
eb	-11.4837
▁unsur	-11.4838
▁ediyordum	-11.4838
▁Sand	-11.484
▁Baron	-11.4842
Kız	-11.4842
▁Hayvan	-11.4842
69	-11.4842
▁günah	-11.4843
onlar	-11.4843
▁Burke	-11.4844
▁yapılmaktadır	-11.4844
▁varır	-11.4844
▁şaşkın	-11.4848
▁söylediler	-11.4848
▁takımını	-11.4848
▁konuşması	-11.4848
▁1948'	-11.4851
▁görevler	-11.4851
Cumhurbaşkanlığı	-11.4851
▁gevşek	-11.4851
▁tarihten	-11.4853
▁küre	-11.4854
▁Başlangıç	-11.4854
▁hareketini	-11.4854
▁miyim	-11.4855
▁ustaca	-11.4855
▁kabuk	-11.4858
▁elbette	-11.4859
▁aileleri	-11.4861
▁1926	-11.4861
α	-11.4862
▁bildiği	-11.4862
▁Camp	-11.4863
▁dahildir	-11.4863
▁Hasta	-11.4864
▁Mir	-11.4864
▁kullanmanın	-11.4866
▁köfte	-11.4868
▁SSCB	-11.4868
▁saldırır	-11.487
▁edebiyatı	-11.487
▁giysiler	-11.4871
▁kurumları	-11.4872
▁kararlılığını	-11.4873
▁Jin	-11.4874
▁katmanı	-11.4875
▁Milletvekilliği	-11.4876
Olumlu	-11.4876
cel	-11.4876
▁Canlı	-11.4877
▁Kir	-11.4878
▁Christine	-11.4879
acı	-11.4879
▁düşünceleri	-11.488
▁olmayacaktır	-11.4881
▁senesinde	-11.4881
▁ortaklık	-11.4882
▁ömrü	-11.4882
belirtilmemiştir	-11.4884
▁önermeyi	-11.4885
▁şarkıların	-11.4886
uma	-11.4886
▁Özgürlük	-11.4887
▁Mia	-11.4887
▁işaretlerini	-11.4889
zlar	-11.489
▁satıldı	-11.4893
▁tartışılan	-11.4893
û	-11.4894
alan	-11.4894
▁(14	-11.4895
aceae	-11.4896
▁alımı	-11.4896
▁eyaletindeki	-11.4898
▁helikopter	-11.4898
uf	-11.4899
да	-11.49
hn	-11.4902
▁Araştırmacılar	-11.4902
▁böbrek	-11.4904
▁hikayedeki	-11.4906
▁sayımı	-11.4907
▁kullandıkları	-11.4911
▁1933	-11.4912
▁CO	-11.4912
▁görüşünü	-11.4914
▁gösteriler	-11.4914
Neden	-11.4916
▁lehine	-11.4917
▁Murphy	-11.4917
▁Farsçaya	-11.4917
▁sağlamamaktadır	-11.4918
▁oluşması	-11.4919
▁Amsterdam	-11.492
▁110	-11.4921
İsti	-11.4925
▁tanımlamaktadır	-11.4925
▁monte	-11.4926
▁bilgisayarın	-11.4928
▁Os	-11.4928
▁yükseklikte	-11.4929
wick	-11.4929
▁medyada	-11.493
▁söylemesi	-11.493
lot	-11.4931
▁sarsılmaz	-11.4933
▁faaliyetlerine	-11.4933
ısı	-11.4936
▁isteme	-11.4936
▁mağlubiyet	-11.4936
▁avcı	-11.4938
▁karma	-11.4938
Con	-11.4939
▁Cross	-11.494
▁keşfedilen	-11.4941
▁ekipmanı	-11.4941
▁Tipik	-11.4942
▁Perry	-11.4943
▁ofisi	-11.4943
▁biçim	-11.4944
▁aralığında	-11.4946
▁listenin	-11.4946
▁kızların	-11.4948
▁çıkmasını	-11.4949
▁tarzında	-11.4949
ulmuş	-11.495
▁arkadaşlarını	-11.495
▁barda	-11.495
▁geçtiğini	-11.495
rarak	-11.4953
▁Friedrich	-11.4954
▁seçimlerde	-11.4954
▁kitlesi	-11.4955
▁efsane	-11.4956
▁oynayarak	-11.4958
zy	-11.4958
fil	-11.4959
▁yapmasıyla	-11.496
▁arkadaşını	-11.4961
▁işlemini	-11.4962
Ser	-11.4962
▁Lily	-11.4963
▁Serisi	-11.4964
▁buluş	-11.4965
▁100'	-11.4965
▁ötürü	-11.4966
▁soy	-11.4966
ref	-11.4966
▁geçirmeye	-11.4967
▁fotoğraflar	-11.4968
▁dikey	-11.4968
▁oynandı	-11.4968
▁dönemlerde	-11.497
▁tabaka	-11.4972
▁değişme	-11.4973
▁gözle	-11.4973
Gi	-11.4981
▁hedeflerine	-11.4981
Ab	-11.4982
▁Çorum	-11.4983
dit	-11.4983
▁Yeri	-11.4986
▁Tokat	-11.4986
NA	-11.4987
aba	-11.4988
▁kendinize	-11.4989
▁geçerlidir	-11.4992
▁alınmış	-11.4992
▁deneyimine	-11.4992
▁bölgeden	-11.4992
▁pre	-11.4995
▁öde	-11.4996
▁Boat	-11.4997
Tanrı	-11.4998
ücü	-11.4998
lé	-11.4999
▁yüzeyine	-11.4999
▁CBS	-11.5003
▁kâr	-11.5004
▁yükleme	-11.5004
▁Veri	-11.5006
FL	-11.5006
win	-11.5007
▁başkalarını	-11.5009
feld	-11.5012
▁hipotezle	-11.5013
▁sıcaklıklar	-11.5015
▁hissettiğini	-11.5016
TA	-11.5016
▁enerjisini	-11.5017
▁Ayrı	-11.5017
▁materyal	-11.5017
▁dansı	-11.5018
▁konumda	-11.5019
back	-11.502
▁gelişir	-11.502
diğer	-11.502
Kendi	-11.5022
▁atanan	-11.5024
▁bırakıp	-11.5024
yacağım	-11.5026
▁bağlılığını	-11.5026
▁ajan	-11.5027
▁gelmesini	-11.5029
▁kaçma	-11.5029
▁İkincisi	-11.5029
▁Walt	-11.5031
▁biyo	-11.5031
▁kaynaklarını	-11.5032
▁ol	-11.5032
▁hipotezde	-11.5034
▁inkar	-11.5035
▁Fra	-11.5035
▁durdurmak	-11.5035
▁Polisi	-11.5035
dé	-11.5036
▁Harold	-11.5037
▁tarihinden	-11.5037
▁modelleri	-11.5039
▁araması	-11.504
▁ikincil	-11.504
▁hatları	-11.504
▁partiler	-11.504
▁Meşrulaştırma	-11.504
▁filmini	-11.5042
▁etkilendi	-11.5042
▁Çevrimiçi	-11.5042
meyen	-11.5043
▁Bla	-11.5043
▁kedinin	-11.5044
▁Ex	-11.5046
▁evliliği	-11.5048
▁Louisiana	-11.5049
▁Eskişehir	-11.5049
▁sürmek	-11.5049
1*	-11.5049
▁Allah	-11.5052
▁öncesine	-11.5052
▁İlişki	-11.5052
▁çelişiyor	-11.5055
▁Jeffrey	-11.5056
▁sahneleri	-11.5057
▁güce	-11.5057
▁hazırladığı	-11.5058
▁Hak	-11.506
ع	-11.506
▁kitapta	-11.5062
▁Güç	-11.5062
▁Mari	-11.5063
▁Etkinlik	-11.5063
▁Wallace	-11.5065
▁Yağ	-11.5066
▁çekmeye	-11.5066
▁360	-11.5066
▁biçimleri	-11.5067
▁çukur	-11.5069
▁İngilizler	-11.5069
Am	-11.507
▁о	-11.507
cre	-11.507
▁Demokratlar	-11.5071
▁Birmingham	-11.5073
örn	-11.5074
▁NBC	-11.5074
▁izler	-11.5074
▁etkisinin	-11.5075
▁çalışıyorlar	-11.5075
▁balon	-11.5075
TS	-11.5075
▁Pictures	-11.5075
eus	-11.5075
mask	-11.5077
▁önemsiz	-11.5078
▁silindir	-11.5079
amadı	-11.5079
▁elle	-11.508
▁1937	-11.5081
▁79	-11.5081
▁davranıyor	-11.5083
yıl	-11.5083
▁Sy	-11.5084
▁sorunlarını	-11.5088
tıcı	-11.5089
bl	-11.5089
▁maydanoz	-11.509
▁England	-11.5091
▁göndermek	-11.5092
▁polise	-11.5094
▁hücresel	-11.5095
▁sistemlerinin	-11.5095
▁açıklamayla	-11.5096
▁1946'	-11.5097
▁sonuçlarına	-11.5098
▁tabanı	-11.5098
▁Somali	-11.5098
▁eserlerini	-11.5099
▁Ruth	-11.51
▁indirim	-11.5101
▁per	-11.5101
▁Cur	-11.5101
▁Eserleri	-11.5101
▁Connecticut	-11.5104
▁memur	-11.5105
▁konuşur	-11.5106
▁bulut	-11.5108
▁ergenlik	-11.5109
Tweet	-11.5109
▁Carr	-11.511
▁okudum	-11.5111
▁çözmeye	-11.5115
▁bombardıman	-11.5115
▁country	-11.5115
▁engelleme	-11.5118
▁ölçüm	-11.5118
▁Kanunu	-11.5118
ਾ	-11.5119
Güzel	-11.5119
▁bulmanız	-11.5119
▁içermesi	-11.5121
kent	-11.5121
▁yazılması	-11.5122
▁olmalarına	-11.5123
▁kolektif	-11.5123
▁güçlendiriyor	-11.5124
▁Müdür	-11.5124
▁paragraftaki	-11.5125
▁hükümdar	-11.5128
▁hayvanat	-11.5129
▁yerindeki	-11.5129
▁çağrısı	-11.513
▁kuralı	-11.513
▁doldurma	-11.513
baba	-11.5131
▁‘	-11.5131
▁kılıyor	-11.5131
▁örtülü	-11.5131
satışa	-11.5132
▁duvarları	-11.5134
▁çevirdi	-11.5134
▁1959'	-11.5135
▁komitesi	-11.5136
▁zorundadır	-11.5137
▁Katedrali	-11.5138
ز	-11.5138
▁kazara	-11.5138
▁Kütahya	-11.5138
▁Çavuş	-11.5139
▁boyutunu	-11.5139
▁vurgulayarak	-11.5141
▁Den	-11.5144
▁kullanışlı	-11.5145
kullanılabilecek	-11.5146
▁zorladı	-11.5146
cumhurbaşkanlığı	-11.5149
▁doğaüstü	-11.5149
▁şeffaf	-11.5149
▁River	-11.515
▁tepkiler	-11.5151
▁Yetişkin	-11.5151
▁adaya	-11.5152
▁ikilisi	-11.5154
▁akciğerlere	-11.5155
▁nehri	-11.5155
▁döküp	-11.5157
Leo	-11.5158
ata	-11.5158
▁güneydoğusunda	-11.5159
▁Restoran	-11.516
74	-11.5161
Wa	-11.5162
▁kaybettiği	-11.5163
▁sayısında	-11.5164
▁Orkestrası	-11.5164
has	-11.5165
▁seviyesinden	-11.5167
▁belirlenmiş	-11.5168
▁bekar	-11.5168
▁koruması	-11.5169
▁Kil	-11.517
▁kategorileri	-11.517
▁koşar	-11.5172
▁izleri	-11.5175
▁unsurların	-11.5175
Tu	-11.5179
▁Diana	-11.518
▁Afgan	-11.5181
▁Kaza	-11.5181
▁düşünceyi	-11.5182
▁teşhis	-11.5182
▁Sp	-11.5182
▁Dublin	-11.5182
▁alalım	-11.5183
▁görün	-11.5184
▁kaçınma	-11.5184
▁açması	-11.5184
▁suçlandı	-11.5184
pon	-11.5184
▁geleneği	-11.5185
▁fahişe	-11.5185
cio	-11.5185
▁faktörlerden	-11.5188
▁Galaxy	-11.5191
mden	-11.5191
▁edebileceği	-11.5191
▁töreninde	-11.5191
▁istila	-11.5192
▁Kiev	-11.5192
▁yapısının	-11.5192
▁imzalanan	-11.5193
▁seçilim	-11.5194
▁değişik	-11.5194
▁edebilecek	-11.5194
▁gözaltına	-11.5194
▁Bahçesi	-11.5196
pet	-11.5196
▁alaycı	-11.5196
dell	-11.5199
▁şehirleri	-11.52
▁Collins	-11.52
ка	-11.52
▁inceleyen	-11.5201
▁ikram	-11.5201
hava	-11.5202
▁gizem	-11.5203
▁duyguya	-11.5205
▁nesli	-11.5205
▁asteroit	-11.5206
▁ayarlama	-11.5208
▁Luis	-11.5208
▁tutkusu	-11.5208
▁yüzleşme	-11.521
▁kombinasyonu	-11.5211
▁ayrımcılık	-11.5213
▁sürün	-11.5213
▁kurtulmak	-11.5213
▁Fast	-11.5215
▁İzlanda	-11.5215
Oldukça	-11.5216
▁enfekte	-11.5216
▁hatırlatıyor	-11.5216
▁öğretmenlik	-11.5216
PR	-11.5217
▁bağlıydı	-11.5217
▁etkileşimi	-11.5218
▁yayılması	-11.5219
▁sürtünme	-11.522
▁Sebastian	-11.522
▁kullanılmasını	-11.5221
▁hesabı	-11.5221
▁Wilhelm	-11.5222
▁diller	-11.5222
Kon	-11.5222
oviç	-11.5223
▁yüzyıllar	-11.5224
▁penaltı	-11.5224
▁Aubrey	-11.5224
▁sil	-11.5226
Mehmet	-11.5228
▁statüsünü	-11.5231
▁Bou	-11.5231
▁Roberts	-11.5231
▁Sw	-11.5232
▁asılı	-11.5234
▁kazasında	-11.5234
▁kumarhane	-11.5236
▁yapıldığını	-11.5236
ance	-11.5238
▁kanlı	-11.5238
▁ilişkisine	-11.5238
▁içermelidir	-11.5241
▁dizin	-11.5243
Ki	-11.5244
▁üretiminde	-11.5244
▁salon	-11.5245
▁amaçlıyor	-11.5245
▁kaplar	-11.5246
mem	-11.5247
▁Uzak	-11.5248
▁tutuklama	-11.5249
▁Dakota	-11.525
▁yürürken	-11.5251
▁Amerikalıların	-11.5251
müş	-11.5254
▁kompozisyon	-11.5255
▁Kapı	-11.5256
▁Tepe	-11.5258
▁tanımlayıcı	-11.5259
acağım	-11.5259
yız	-11.526
▁evrenin	-11.5261
▁fi	-11.5261
▁beton	-11.5262
▁karşın	-11.5263
iri	-11.5265
▁derinliği	-11.5265
▁yendi	-11.5266
▁gerçekleşmesi	-11.5266
▁Kü	-11.5267
▁vokalist	-11.5267
▁kahkaha	-11.5268
Ek	-11.5268
▁kesim	-11.527
▁kapasite	-11.527
▁yatay	-11.5271
▁Tanım	-11.5272
▁ulaştığında	-11.5272
CE	-11.5272
▁Şen	-11.5273
▁Hakları	-11.5276
▁feet	-11.5277
▁Say	-11.5277
▁çocukla	-11.5279
▁kuruluşların	-11.5284
SI	-11.5284
lıların	-11.5285
▁aptalca	-11.5288
▁değerlendiril	-11.5288
▁gündelik	-11.5288
▁formatı	-11.5289
▁uykuya	-11.5291
▁Anlaşması	-11.5292
▁gündüz	-11.5293
hara	-11.5294
▁değerlendirdi	-11.5294
▁oluşturacağım	-11.5294
▁tutkulu	-11.5294
duk	-11.5295
▁koca	-11.5296
▁Gönderi	-11.5297
▁gelişmeye	-11.5297
▁Konsey	-11.5297
▁taraftaki	-11.5297
▁Seyahat	-11.5299
siyon	-11.53
▁buzul	-11.53
hop	-11.5302
▁istemediği	-11.5304
▁yüzüne	-11.5305
ington	-11.5306
▁Ul	-11.5306
ebilirsiniz	-11.5306
▁bölünmesi	-11.5307
▁yükselir	-11.5307
▁azaltılması	-11.5307
▁tarihe	-11.5309
▁hayattaki	-11.531
▁açılmıştır	-11.5311
▁duyguların	-11.5312
▁Tarihsel	-11.5313
lyn	-11.5315
medi	-11.5315
▁sağlanır	-11.5316
▁etrafta	-11.5316
▁parçanın	-11.5317
rov	-11.532
▁dilbilimci	-11.5322
▁katıyor	-11.5323
ğu	-11.5323
▁sezonunu	-11.5323
▁ihtimalle	-11.5324
kai	-11.5325
▁kazanmış	-11.5325
▁karıştırarak	-11.5326
▁95	-11.5327
rad	-11.5327
▁71	-11.533
▁uzaya	-11.5332
▁düşünceye	-11.5333
▁hukuku	-11.5333
İngiliz	-11.5334
▁Protestan	-11.5335
▁Nişanı	-11.5335
▁1965'	-11.5335
▁onuruna	-11.5335
Altın	-11.5336
▁ilçesinin	-11.5338
▁Bağlantı	-11.5338
görü	-11.5338
▁kararlılığı	-11.534
lıktan	-11.534
▁şovu	-11.5342
▁toplantısı	-11.5343
Batı	-11.5343
▁Derek	-11.5343
▁Nil	-11.5343
▁Portland	-11.5344
▁metrelik	-11.5346
Veri	-11.5347
▁örgütü	-11.535
▁Giants	-11.5354
▁cihazın	-11.5354
Mark	-11.5355
▁hücrelerinin	-11.5356
▁çizim	-11.5357
▁olabileceğinden	-11.5357
▁arkeolojik	-11.5358
▁personelin	-11.5358
▁grupla	-11.5358
▁cerrahi	-11.5358
▁130	-11.5358
laması	-11.536
Metni	-11.536
▁Şeker	-11.536
▁adli	-11.5361
▁cumhuriyet	-11.5362
▁şiddeti	-11.5362
over	-11.5362
▁Ey	-11.5363
▁fikirlerini	-11.5363
▁istediğinizi	-11.5364
▁projenin	-11.5364
ğerlendirilmesi	-11.5365
▁varsaymak	-11.5366
▁Uni	-11.5368
▁Eu	-11.5368
yorum	-11.5368
▁dalgaları	-11.5369
▁bulmaca	-11.537
ören	-11.537
▁yayımlanmıştır	-11.537
▁aracının	-11.5373
▁vs	-11.5373
▁danışmanlık	-11.5373
▁Tal	-11.5375
▁sessizce	-11.5376
ва	-11.5376
▁2,5	-11.5378
▁gözlük	-11.5379
▁hedefler	-11.5379
▁izleyicinin	-11.5379
▁1918	-11.5381
▁bahsediyorlar	-11.5382
▁yemeğine	-11.5383
▁Çal	-11.5383
▁hazırlama	-11.5383
▁karşılığı	-11.5384
özete	-11.5384
▁kok	-11.5384
▁anlatıcı	-11.5384
▁fırtınası	-11.5384
Es	-11.5385
mba	-11.5385
Çocuklar	-11.5386
▁filmle	-11.5386
Ke	-11.5386
▁çığır	-11.5386
▁meslektaşı	-11.539
▁Kelimeler	-11.539
▁Spa	-11.5392
▁bulunmayan	-11.5393
▁topla	-11.5393
▁dişleri	-11.5395
▁temsili	-11.5395
zı	-11.5396
▁yollar	-11.5396
▁karşılaştıkları	-11.5396
▁üretti	-11.5397
▁birçoğu	-11.5398
▁hesaba	-11.5403
▁Marshall	-11.5404
▁Şeyh	-11.5404
▁olmayacağını	-11.5405
▁içermediğini	-11.5409
▁Karen	-11.541
▁türünde	-11.541
▁ihraç	-11.5412
▁kaçınılmaz	-11.5412
▁kullanabileceği	-11.5414
▁düzenlemeleri	-11.5416
Mor	-11.5416
My	-11.5419
▁tutumu	-11.542
▁Sekreteri	-11.5421
▁Şey	-11.5421
▁Apollo	-11.5422
▁açıklık	-11.5422
▁ırksal	-11.5422
▁havacılık	-11.5426
▁değerlendirmesi	-11.5429
▁tırnak	-11.5429
▁1917	-11.5429
▁Chuck	-11.543
meli	-11.5431
▁gram	-11.5434
▁sahibidir	-11.5435
▁Sivil	-11.5436
▁sur	-11.5437
▁euro	-11.5437
▁Ball	-11.5438
▁zehir	-11.5439
▁notu	-11.5439
ılıyor	-11.5444
▁kaz	-11.5444
▁gelmesine	-11.5445
▁isteyin	-11.5446
▁Yetkililer	-11.5448
▁Potter	-11.5448
▁%3	-11.545
▁Osmanlılar	-11.545
şimdi	-11.5451
▁Kafa	-11.5452
▁filmlerin	-11.5453
▁görevlendirildi	-11.5455
▁Türkmen	-11.5455
▁Gelecek	-11.5455
▁tanınmaktadır	-11.5455
▁kurulmasına	-11.5456
üş	-11.5456
ə	-11.5457
▁işlevsel	-11.5458
ous	-11.5459
▁yemeğini	-11.5462
▁ayırdı	-11.5462
3,	-11.5464
Ayrıca	-11.5464
▁komut	-11.5465
▁Öğle	-11.5467
▁Kızı	-11.5468
▁kılavuz	-11.5469
▁Jam	-11.547
▁desteğiyle	-11.547
▁Dönemi	-11.5471
▁keşfederler	-11.5471
▁çıkışını	-11.5472
▁duvarı	-11.5472
▁finansmanı	-11.5472
▁açıklığa	-11.5472
▁çabalarına	-11.5473
değer	-11.5474
▁mesajın	-11.5475
▁katılması	-11.5475
▁America	-11.5477
▁seviyede	-11.548
▁Kitabın	-11.5481
▁92	-11.5483
▁hastalıklar	-11.5483
tip	-11.5484
▁kanıtladı	-11.5488
por	-11.5489
rdı	-11.5489
▁kompleksi	-11.549
▁flört	-11.549
▁esnasında	-11.549
▁Bennett	-11.549
▁aşan	-11.5494
▁inek	-11.5497
▁nedenlerini	-11.5498
▁süresini	-11.5501
▁çevireceğim	-11.5502
▁vadede	-11.5504
▁1955'	-11.5504
▁HD	-11.5504
▁pH	-11.5504
▁kumar	-11.5505
▁Ekip	-11.5506
▁Kit	-11.5506
▁çevirinin	-11.5507
▁1961'	-11.5508
▁sormak	-11.5509
Han	-11.5509
Uzun	-11.5511
▁Hikayesi	-11.5512
▁davulcu	-11.5513
▁karşılayan	-11.5513
▁içerdiğini	-11.5515
▁fe	-11.5516
▁üretimini	-11.5516
▁adlandırıldı	-11.5516
▁Home	-11.5517
[...]
